{
  "version": "1.0",
  "truncation": {
    "direction": "Right",
    "max_length": 512,
    "strategy": "LongestFirst",
    "stride": 0
  },
  "padding": {
    "strategy": "BatchLongest",
    "direction": "Right",
    "pad_to_multiple_of": null,
    "pad_id": 0,
    "pad_type_id": 0,
    "pad_token": "<pad>"
  },
  "added_tokens": [
    {
      "id": 0,
      "content": "<pad>",
      "single_word": false,
      "lstrip": false,
      "rstrip": false,
      "normalized": false,
      "special": true
    },
    {
      "id": 1,
      "content": "<unk>",
      "single_word": false,
      "lstrip": false,
      "rstrip": false,
      "normalized": false,
      "special": true
    },
    {
      "id": 2,
      "content": "<s>",
      "single_word": false,
      "lstrip": false,
      "rstrip": false,
      "normalized": false,
      "special": true
    },
    {
      "id": 3,
      "content": "</s>",
      "single_word": false,
      "lstrip": false,
      "rstrip": false,
      "normalized": false,
      "special": true
    }
  ],
  "normalizer": {
    "type": "NFKC"
  },
  "pre_tokenizer": {
    "type": "ByteLevel",
    "add_prefix_space": false,
    "trim_offsets": true,
    "use_regex": true
  },
  "post_processor": {
    "type": "ByteLevel",
    "add_prefix_space": true,
    "trim_offsets": false,
    "use_regex": true
  },
  "decoder": {
    "type": "ByteLevel",
    "add_prefix_space": true,
    "trim_offsets": true,
    "use_regex": true
  },
  "model": {
    "type": "BPE",
    "dropout": null,
    "unk_token": null,
    "continuing_subword_prefix": null,
    "end_of_word_suffix": null,
    "fuse_unk": false,
    "byte_fallback": false,
    "ignore_merges": false,
    "vocab": {
      "<pad>": 0,
      "<unk>": 1,
      "<s>": 2,
      "</s>": 3,
      "!": 4,
      "\"": 5,
      "#": 6,
      "$": 7,
      "%": 8,
      "&": 9,
      "'": 10,
      "(": 11,
      ")": 12,
      "*": 13,
      "+": 14,
      ",": 15,
      "-": 16,
      ".": 17,
      "/": 18,
      "0": 19,
      "1": 20,
      "2": 21,
      "3": 22,
      "4": 23,
      "5": 24,
      "6": 25,
      "7": 26,
      "8": 27,
      "9": 28,
      ":": 29,
      ";": 30,
      "<": 31,
      "=": 32,
      ">": 33,
      "?": 34,
      "@": 35,
      "A": 36,
      "B": 37,
      "C": 38,
      "D": 39,
      "E": 40,
      "F": 41,
      "G": 42,
      "H": 43,
      "I": 44,
      "J": 45,
      "K": 46,
      "L": 47,
      "M": 48,
      "N": 49,
      "O": 50,
      "P": 51,
      "Q": 52,
      "R": 53,
      "S": 54,
      "T": 55,
      "U": 56,
      "V": 57,
      "W": 58,
      "X": 59,
      "Y": 60,
      "Z": 61,
      "[": 62,
      "\\": 63,
      "]": 64,
      "^": 65,
      "_": 66,
      "`": 67,
      "a": 68,
      "b": 69,
      "c": 70,
      "d": 71,
      "e": 72,
      "f": 73,
      "g": 74,
      "h": 75,
      "i": 76,
      "j": 77,
      "k": 78,
      "l": 79,
      "m": 80,
      "n": 81,
      "o": 82,
      "p": 83,
      "q": 84,
      "r": 85,
      "s": 86,
      "t": 87,
      "u": 88,
      "v": 89,
      "w": 90,
      "x": 91,
      "y": 92,
      "z": 93,
      "{": 94,
      "|": 95,
      "}": 96,
      "~": 97,
      "¡": 98,
      "¢": 99,
      "£": 100,
      "¤": 101,
      "¥": 102,
      "¦": 103,
      "§": 104,
      "¨": 105,
      "©": 106,
      "ª": 107,
      "«": 108,
      "¬": 109,
      "®": 110,
      "¯": 111,
      "°": 112,
      "±": 113,
      "²": 114,
      "³": 115,
      "´": 116,
      "µ": 117,
      "¶": 118,
      "·": 119,
      "¸": 120,
      "¹": 121,
      "º": 122,
      "»": 123,
      "¼": 124,
      "½": 125,
      "¾": 126,
      "¿": 127,
      "À": 128,
      "Á": 129,
      "Â": 130,
      "Ã": 131,
      "Ä": 132,
      "Å": 133,
      "Æ": 134,
      "Ç": 135,
      "È": 136,
      "É": 137,
      "Ê": 138,
      "Ë": 139,
      "Ì": 140,
      "Í": 141,
      "Î": 142,
      "Ï": 143,
      "Ð": 144,
      "Ñ": 145,
      "Ò": 146,
      "Ó": 147,
      "Ô": 148,
      "Õ": 149,
      "Ö": 150,
      "×": 151,
      "Ø": 152,
      "Ù": 153,
      "Ú": 154,
      "Û": 155,
      "Ü": 156,
      "Ý": 157,
      "Þ": 158,
      "ß": 159,
      "à": 160,
      "á": 161,
      "â": 162,
      "ã": 163,
      "ä": 164,
      "å": 165,
      "æ": 166,
      "ç": 167,
      "è": 168,
      "é": 169,
      "ê": 170,
      "ë": 171,
      "ì": 172,
      "í": 173,
      "î": 174,
      "ï": 175,
      "ð": 176,
      "ñ": 177,
      "ò": 178,
      "ó": 179,
      "ô": 180,
      "õ": 181,
      "ö": 182,
      "÷": 183,
      "ø": 184,
      "ù": 185,
      "ú": 186,
      "û": 187,
      "ü": 188,
      "ý": 189,
      "þ": 190,
      "ÿ": 191,
      "Ā": 192,
      "ā": 193,
      "Ă": 194,
      "ă": 195,
      "Ą": 196,
      "ą": 197,
      "Ć": 198,
      "ć": 199,
      "Ĉ": 200,
      "ĉ": 201,
      "Ċ": 202,
      "ċ": 203,
      "Č": 204,
      "č": 205,
      "Ď": 206,
      "ď": 207,
      "Đ": 208,
      "đ": 209,
      "Ē": 210,
      "ē": 211,
      "Ĕ": 212,
      "ĕ": 213,
      "Ė": 214,
      "ė": 215,
      "Ę": 216,
      "ę": 217,
      "Ě": 218,
      "ě": 219,
      "Ĝ": 220,
      "ĝ": 221,
      "Ğ": 222,
      "ğ": 223,
      "Ġ": 224,
      "ġ": 225,
      "Ģ": 226,
      "ģ": 227,
      "Ĥ": 228,
      "ĥ": 229,
      "Ħ": 230,
      "ħ": 231,
      "Ĩ": 232,
      "ĩ": 233,
      "Ī": 234,
      "ī": 235,
      "Ĭ": 236,
      "ĭ": 237,
      "Į": 238,
      "į": 239,
      "İ": 240,
      "ı": 241,
      "Ĳ": 242,
      "ĳ": 243,
      "Ĵ": 244,
      "ĵ": 245,
      "Ķ": 246,
      "ķ": 247,
      "ĸ": 248,
      "Ĺ": 249,
      "ĺ": 250,
      "Ļ": 251,
      "ļ": 252,
      "Ľ": 253,
      "ľ": 254,
      "Ŀ": 255,
      "ŀ": 256,
      "Ł": 257,
      "ł": 258,
      "Ń": 259,
      "he": 260,
      "Ġt": 261,
      "Ġa": 262,
      "Ġs": 263,
      "Ġw": 264,
      "nd": 265,
      "Ġthe": 266,
      "ed": 267,
      "Ġand": 268,
      "Ġto": 269,
      "Ġb": 270,
      "in": 271,
      "Ġh": 272,
      "Ġwa": 273,
      "re": 274,
      "Ġf": 275,
      "ou": 276,
      "it": 277,
      "Ġl": 278,
      "Ġc": 279,
      "er": 280,
      "Ġd": 281,
      "Ġhe": 282,
      "Ġwas": 283,
      "Ġm": 284,
      "Ġp": 285,
      "om": 286,
      "ĠT": 287,
      "Ġo": 288,
      "ay": 289,
      "ar": 290,
      "ing": 291,
      "is": 292,
      "Ġg": 293,
      "il": 294,
      "id": 295,
      "at": 296,
      "en": 297,
      "Ġn": 298,
      "Ġsa": 299,
      "Ġha": 300,
      "ĠS": 301,
      "ĠThe": 302,
      "an": 303,
      "im": 304,
      "or": 305,
      "on": 306,
      "Ġit": 307,
      "Ġth": 308,
      "ll": 309,
      "le": 310,
      "ĠH": 311,
      "Ġher": 312,
      "et": 313,
      "ot": 314,
      "ir": 315,
      "ĠShe": 316,
      "ĠHe": 317,
      "es": 318,
      "ver": 319,
      "Ġin": 320,
      "ut": 321,
      "ow": 322,
      "ck": 323,
      "Ġe": 324,
      "ĠThey": 325,
      "Ġu": 326,
      "ld": 327,
      "oo": 328,
      "ig": 329,
      "Ġy": 330,
      "Ġsaid": 331,
      "Ġr": 332,
      "Ġbe": 333,
      "ily": 334,
      "am": 335,
      "Ġst": 336,
      "ce": 337,
      "Ġshe": 338,
      "Ġ\"": 339,
      "pp": 340,
      "ke": 341,
      "ĠI": 342,
      "ith": 343,
      "ve": 344,
      "On": 345,
      "Ġwith": 346,
      "Ġof": 347,
      "Lily": 348,
      "Ġon": 349,
      "Ġso": 350,
      "ked": 351,
      "ri": 352,
      "Ġhis": 353,
      "nt": 354,
      "Ġpl": 355,
      "very": 356,
      "Ġyou": 357,
      "ad": 358,
      "Ġday": 359,
      "Ġthat": 360,
      "Ġup": 361,
      "Ġhad": 362,
      "st": 363,
      "Ġplay": 364,
      "Ġthey": 365,
      "el": 366,
      "ĠLily": 367,
      "Ġmom": 368,
      "Ġfor": 369,
      "Ġwe": 370,
      "ould": 371,
      "un": 372,
      "my": 373,
      "ĠB": 374,
      "The": 375,
      "'s": 376,
      "Ġhapp": 377,
      "ent": 378,
      "ch": 379,
      "itt": 380,
      "Ġli": 381,
      "Ġwant": 382,
      "out": 383,
      "Ġsh": 384,
      "her": 385,
      "ly": 386,
      "Ġvery": 387,
      "ound": 388,
      "ime": 389,
      "ome": 390,
      "se": 391,
      "ittle": 392,
      "all": 393,
      "Ġdo": 394,
      "end": 395,
      "Ġtime": 396,
      "Ġwh": 397,
      "Ġnot": 398,
      "Ġlittle": 399,
      "Ġthere": 400,
      "Ġk": 401,
      "al": 402,
      "ĠĊ": 403,
      "ht": 404,
      "Ġne": 405,
      "Ġhappy": 406,
      "Ġre": 407,
      "Ġbig": 408,
      "ĠM": 409,
      "Ġsm": 410,
      "Ġbut": 411,
      "ĠIt": 412,
      "ack": 413,
      "Ġsaw": 414,
      "Ġan": 415,
      "riend": 416,
      "Ġfriend": 417,
      "Ġis": 418,
      "ra": 419,
      "Ġas": 420,
      "ry": 421,
      "One": 422,
      "ide": 423,
      ".\"": 424,
      "ake": 425,
      "'t": 426,
      "ved": 427,
      "Once": 428,
      "ug": 429,
      "ter": 430,
      "Ġloo": 431,
      "Ġwere": 432,
      "ore": 433,
      "ec": 434,
      "Ġlo": 435,
      "!\"": 436,
      "Ġhim": 437,
      "Ġbo": 438,
      "Ġtoo": 439,
      "Ġgo": 440,
      "irl": 441,
      "Ġse": 442,
      "ĠTim": 443,
      "Ġupon": 444,
      "Ġgirl": 445,
      "Ġwanted": 446,
      "Ġj": 447,
      "ard": 448,
      "ill": 449,
      "Ġout": 450,
      "Ġsp": 451,
      "way": 452,
      "Ġthem": 453,
      "fu": 454,
      "Ġat": 455,
      "Ġcould": 456,
      "ind": 457,
      "ur": 458,
      "Ġare": 459,
      "hen": 460,
      "ĠA": 461,
      "Ġdid": 462,
      "Ġtheir": 463,
      "Ġsmil": 464,
      "ain": 465,
      "Ġex": 466,
      "hed": 467,
      "art": 468,
      "Ġhave": 469,
      "Ġwent": 470,
      "Ġar": 471,
      "rom": 472,
      "ic": 473,
      "ĠJ": 474,
      "hing": 475,
      "ful": 476,
      "Ġall": 477,
      "lp": 478,
      "Ġnam": 479,
      "Ġfriends": 480,
      "ight": 481,
      "Ġkn": 482,
      "Ġcan": 483,
      "ood": 484,
      "Ġhelp": 485,
      "um": 486,
      "one": 487,
      "ark": 488,
      "Ġback": 489,
      "ĠBen": 490,
      "?\"": 491,
      "Ġcl": 492,
      "Ġfun": 493,
      "are": 494,
      "Ġle": 495,
      "Ġno": 496,
      "Ġnamed": 497,
      "Ġsay": 498,
      "ĠTom": 499,
      "Ġsc": 500,
      "oug": 501,
      "Ġloved": 502,
      "op": 503,
      "Ġal": 504,
      "You": 505,
      "elt": 506,
      "side": 507,
      "ĠOne": 508,
      "Ġsmiled": 509,
      "ick": 510,
      "Ġfelt": 511,
      "Ġman": 512,
      "Ġaround": 513,
      "Ġasked": 514,
      "Ġfe": 515,
      "Ġtoy": 516,
      "ĠTimmy": 517,
      "ame": 518,
      "Ġlooked": 519,
      "omet": 520,
      "Ġlike": 521,
      "Ġsome": 522,
      "Ġsee": 523,
      "ure": 524,
      "Ġro": 525,
      "Ġwould": 526,
      "Ġboy": 527,
      "Ġbr": 528,
      "get": 529,
      "Ġbir": 530,
      "ĠW": 531,
      "Ġme": 532,
      "Ġstart": 533,
      "ong": 534,
      "ice": 535,
      "Ġsomet": 536,
      "ss": 537,
      "Ġbird": 538,
      "ade": 539,
      "Ġfa": 540,
      "Ġwor": 541,
      "Ġag": 542,
      "ings": 543,
      "dd": 544,
      "king": 545,
      "Ġwhat": 546,
      "Ġtre": 547,
      "Ã¢": 548,
      "âĤ": 549,
      "âĤ¬": 550,
      "gether": 551,
      "Ġaway": 552,
      "own": 553,
      "Ġmake": 554,
      "Ġstarted": 555,
      "ĠBut": 556,
      "ie": 557,
      "Ġran": 558,
      "ag": 559,
      "ared": 560,
      "oud": 561,
      "Ġmade": 562,
      "Ġsomething": 563,
      "ited": 564,
      "if": 565,
      "Ġtogether": 566,
      ",\"": 567,
      "Ġco": 568,
      "Ġpark": 569,
      "ther": 570,
      "Ġexc": 571,
      "Ġcar": 572,
      "ĠYou": 573,
      "Ġsad": 574,
      "Ġother": 575,
      "Ġfrom": 576,
      "Ġput": 577,
      "Ġnew": 578,
      "ble": 579,
      "Ġpr": 580,
      "Ġsays": 581,
      "Ġla": 582,
      "Ġhome": 583,
      "Ġagain": 584,
      "Ġmu": 585,
      "Ġwhen": 586,
      "Ġhug": 587,
      "ell": 588,
      "Ġthen": 589,
      "Ġdec": 590,
      "Ġwho": 591,
      "est": 592,
      "ep": 593,
      "ĠL": 594,
      "Ġfound": 595,
      "ach": 596,
      "ried": 597,
      "pped": 598,
      "Ġch": 599,
      "Ġgood": 600,
      "ook": 601,
      "Ġfl": 602,
      "ĠE": 603,
      "as": 604,
      "Ġwal": 605,
      "qu": 606,
      "Ġget": 607,
      "ought": 608,
      "ally": 609,
      "Ġplaying": 610,
      "pl": 611,
      "Ġexcited": 612,
      "Ġsw": 613,
      "Ġthings": 614,
      "hat": 615,
      "Ġgot": 616,
      "ous": 617,
      "ided": 618,
      "Ġdecided": 619,
      "uck": 620,
      "Ġevery": 621,
      "Ġliked": 622,
      "ro": 623,
      "ave": 624,
      "Ġcame": 625,
      "ny": 626,
      "Ġbl": 627,
      "ax": 628,
      "Ġone": 629,
      "Ġdown": 630,
      "Ġbec": 631,
      "Ġscared": 632,
      "ouse": 633,
      "ust": 634,
      "Ġv": 635,
      "Ġfind": 636,
      "Ġthan": 637,
      "na": 638,
      "Ġcare": 639,
      "Ġfeel": 640,
      "Ġyour": 641,
      "ĠD": 642,
      "ara": 643,
      "udd": 644,
      "ist": 645,
      "Ġdog": 646,
      "Ġab": 647,
      "Ġdad": 648,
      "ways": 649,
      "Ġke": 650,
      "ĠMom": 651,
      "Ġdidn": 652,
      "Ġalways": 653,
      "ue": 654,
      "Ġgra": 655,
      "ap": 656,
      "Ġgr": 657,
      "arn": 658,
      "fe": 659,
      "us": 660,
      "Ġmommy": 661,
      "Ġtook": 662,
      "our": 663,
      "ĠF": 664,
      "Ġlot": 665,
      "ess": 666,
      "Ġkne": 667,
      "ant": 668,
      "ers": 669,
      "Ġabout": 670,
      "eci": 671,
      "nder": 672,
      "Ġpo": 673,
      "They": 674,
      "Ġmy": 675,
      "Ġlook": 676,
      "Ġoutside": 677,
      "bb": 678,
      "Ġtree": 679,
      "nna": 680,
      "ched": 681,
      "Ġwill": 682,
      "Ġthought": 683,
      "ise": 684,
      "ened": 685,
      "Ġball": 686,
      "Ġtoys": 687,
      "ite": 688,
      "ĠSam": 689,
      "Ġint": 690,
      "ecial": 691,
      "Ġspecial": 692,
      "Ġold": 693,
      "Ġta": 694,
      "Ġmore": 695,
      "Ġlearn": 696,
      "Ġknow": 697,
      "ret": 698,
      "Ġho": 699,
      "Ġknew": 700,
      "Ġtake": 701,
      "ged": 702,
      "Ġlaug": 703,
      "udden": 704,
      "Ġpe": 705,
      "fter": 706,
      "ĠMax": 707,
      "Ġcat": 708,
      "ive": 709,
      "Ġany": 710,
      "uddenly": 711,
      "Ġhow": 712,
      "Ġtr": 713,
      "ma": 714,
      "au": 715,
      "Ġsor": 716,
      "Ġmuch": 717,
      "Ġshow": 718,
      "ia": 719,
      "Ġtw": 720,
      "ish": 721,
      "ven": 722,
      "Ġsl": 723,
      "Ġhouse": 724,
      "But": 725,
      "and": 726,
      "ink": 727,
      "Ġsk": 728,
      "Ġrun": 729,
      "Ġmo": 730,
      "Ġop": 731,
      "Ġinto": 732,
      "Ġsun": 733,
      "ĠEvery": 734,
      "Ġclo": 735,
      "Ġtried": 736,
      "Ġhand": 737,
      "Ġinside": 738,
      "Ġcouldn": 739,
      "Ġtold": 740,
      "Ġproud": 741,
      "Ġen": 742,
      "Ġqu": 743,
      "Ġnever": 744,
      "Ġsorry": 745,
      "Ġgave": 746,
      "Ġwater": 747,
      "Ġor": 748,
      "Ġover": 749,
      "ump": 750,
      "ate": 751,
      "ause": 752,
      "Ġif": 753,
      "ace": 754,
      "by": 755,
      "Ġexpl": 756,
      "Ġheard": 757,
      "ank": 758,
      "Ġeat": 759,
      "ty": 760,
      "other": 761,
      "ion": 762,
      "ge": 763,
      "Ġplayed": 764,
      "dy": 765,
      "Ġroom": 766,
      "Ġthis": 767,
      "etter": 768,
      "Ġpick": 769,
      "Ġeach": 770,
      "Ġstr": 771,
      "Ġgre": 772,
      "here": 773,
      "Ġbecause": 774,
      "ĠSara": 775,
      "Ġpret": 776,
      "Ġjust": 777,
      "Tom": 778,
      "Ġwat": 779,
      "ĠWe": 780,
      "Ġcom": 781,
      "oth": 782,
      "Ġhugged": 783,
      "Ġoff": 784,
      "ak": 785,
      "Ġbox": 786,
      "ile": 787,
      "Ġneed": 788,
      "iz": 789,
      "Ġnice": 790,
      "Ġsmall": 791,
      "Ġlong": 792,
      "Ġjo": 793,
      "Ġbu": 794,
      "ĠAnna": 795,
      "Mom": 796,
      "Ġunt": 797,
      "ough": 798,
      "Ġmany": 799,
      "ort": 800,
      "ving": 801,
      "uc": 802,
      "Ġfo": 803,
      "Ġbear": 804,
      "Ġuntil": 805,
      "ĠJack": 806,
      "sel": 807,
      "ine": 808,
      "imal": 809,
      "Ġanimal": 810,
      "Ġtry": 811,
      "ild": 812,
      "'m": 813,
      "sed": 814,
      "Ġlearned": 815,
      "gry": 816,
      "Ġend": 817,
      "Ġbetter": 818,
      "Ġim": 819,
      "em": 820,
      "Ġcall": 821,
      "urt": 822,
      "Ġkind": 823,
      "Ġad": 824,
      "ft": 825,
      "vent": 826,
      "aut": 827,
      "ĠJo": 828,
      "Ġflow": 829,
      "He": 830,
      "Ġdre": 831,
      "ĠSo": 832,
      "Ġlove": 833,
      "urn": 834,
      "ull": 835,
      "Ġcle": 836,
      "ars": 837,
      "Ġbest": 838,
      "pt": 839,
      "ber": 840,
      "ady": 841,
      "Ġthanked": 842,
      "Ġeven": 843,
      "urp": 844,
      "Ġbeaut": 845,
      "Ġsky": 846,
      "Ġbra": 847,
      "arden": 848,
      "Ġgarden": 849,
      "Ġsn": 850,
      "lly": 851,
      "ĠAnd": 852,
      "Ġfast": 853,
      "ves": 854,
      "ĠHer": 855,
      "Ġcareful": 856,
      "Ġlaughed": 857,
      "Ġlots": 858,
      "self": 859,
      "Ġby": 860,
      "Ġfi": 861,
      "Ġche": 862,
      "lew": 863,
      "ĠMia": 864,
      "Ġjump": 865,
      "Ġdon": 866,
      "iny": 867,
      "Ġfam": 868,
      "Yes": 869,
      "Ġloud": 870,
      "Ġbeauti": 871,
      "Ġway": 872,
      "Ġbeautiful": 873,
      "wn": 874,
      "Ġte": 875,
      "Ġgl": 876,
      "ies": 877,
      "ĠC": 878,
      "Ġstill": 879,
      "Th": 880,
      "Ġra": 881,
      "ĠThen": 882,
      "Ġcome": 883,
      "Ġhard": 884,
      "Åĵ": 885,
      "Ġwo": 886,
      "ĠFrom": 887,
      "hn": 888,
      "ase": 889,
      "Ġlist": 890,
      "Ġstay": 891,
      "Ġanimals": 892,
      "ĠHis": 893,
      "ect": 894,
      "It": 895,
      "ning": 896,
      "Ġhurt": 897,
      "Ġsafe": 898,
      "Ġunder": 899,
      "ast": 900,
      "Ġrem": 901,
      "Ġcol": 902,
      "ct": 903,
      "hes": 904,
      "Ġboth": 905,
      "Ġlived": 906,
      "Ġtwo": 907,
      "Ġcu": 908,
      "ool": 909,
      "ople": 910,
      "ree": 911,
      "ane": 912,
      "Ġfamily": 913,
      "Ġbrave": 914,
      "Ġimp": 915,
      "ĠÃ¢": 916,
      "Ġits": 917,
      "Ġlet": 918,
      "Ġfin": 919,
      "When": 920,
      "Ġflew": 921,
      "Ġbad": 922,
      "ished": 923,
      "ob": 924,
      "Ġkept": 925,
      "urpr": 926,
      "ucy": 927,
      "Tim": 928,
      "Ġpeople": 929,
      "Ġwalked": 930,
      "igh": 931,
      "Ġstor": 932,
      "Ġsurpr": 933,
      "Ġcalled": 934,
      "Ġbook": 935,
      "ĠWhen": 936,
      "fore": 937,
      "be": 938,
      "Ġsoon": 939,
      "led": 940,
      "Ġred": 941,
      "kay": 942,
      "Ġfore": 943,
      "Ġdan": 944,
      "Ġfly": 945,
      "xt": 946,
      "Ġshould": 947,
      "ock": 948,
      "ised": 949,
      "Ġrock": 950,
      "Ġpic": 951,
      "Ġangry": 952,
      "Ġgoing": 953,
      "Ġshare": 954,
      "Ġclean": 955,
      "ĠP": 956,
      "Ġadvent": 957,
      "ummy": 958,
      "Ġopened": 959,
      "Ġexplore": 960,
      "Ġkeep": 961,
      "No": 962,
      "ip": 963,
      "Let": 964,
      "Ġnow": 965,
      "illy": 966,
      "Ġbefore": 967,
      "Ġpretty": 968,
      "Ġcon": 969,
      "Ġdoor": 970,
      "Ġcre": 971,
      "Ġwind": 972,
      "Ġdoll": 973,
      "ary": 974,
      "Ġsto": 975,
      "Ġshiny": 976,
      "Ġground": 977,
      "Ġreal": 978,
      "age": 979,
      "Ġdra": 980,
      "Ġnoise": 981,
      "Ġide": 982,
      "dded": 983,
      "Ġfar": 984,
      "Ġfr": 985,
      "ied": 986,
      "Ġturn": 987,
      "Ġfeeling": 988,
      "Ġcry": 989,
      "Ġey": 990,
      "oon": 991,
      "Ġwar": 992,
      "oy": 993,
      "Ġidea": 994,
      "Ġcolor": 995,
      "thing": 996,
      "les": 997,
      "Ġun": 998,
      "Ġnext": 999,
      "Ġpicked": 1000,
      "Ġwalking": 1001,
      "th": 1002,
      "so": 1003,
      "Ġwhile": 1004,
      "TM": 1005,
      "imb": 1006,
      "Ben": 1007,
      "ĠLucy": 1008,
      "Ġthr": 1009,
      "Ġsmile": 1010,
      "Ġma": 1011,
      "Ġadventure": 1012,
      "Ġclimb": 1013,
      "Ġalso": 1014,
      "iced": 1015,
      "Ġbed": 1016,
      "uch": 1017,
      "ture": 1018,
      "What": 1019,
      "ger": 1020,
      "ious": 1021,
      "That": 1022,
      "eet": 1023,
      "joy": 1024,
      "ff": 1025,
      "Ġbeing": 1026,
      "ted": 1027,
      "Ġwr": 1028,
      "ac": 1029,
      "Ġclos": 1030,
      "Ġnodded": 1031,
      "Ġlooking": 1032,
      "Ġstopped": 1033,
      "Ġdel": 1034,
      "Ġhas": 1035,
      "kes": 1036,
      "Ġdif": 1037,
      "Ġpicture": 1038,
      "Ġgive": 1039,
      "ember": 1040,
      "ting": 1041,
      "Ġfood": 1042,
      "ĠDad": 1043,
      "Ġtruck": 1044,
      "ĠSuddenly": 1045,
      "Ġwait": 1046,
      "ĠG": 1047,
      "Ġeyes": 1048,
      "ught": 1049,
      "Ġever": 1050,
      "Ġenjoy": 1051,
      "Ġnoticed": 1052,
      "Ġown": 1053,
      "Ġquick": 1054,
      "Ġafter": 1055,
      "Ġgreat": 1056,
      "able": 1057,
      "maz": 1058,
      "Thank": 1059,
      "Ġamaz": 1060,
      "aybe": 1061,
      "ized": 1062,
      "Ġbre": 1063,
      "Ġremember": 1064,
      "Ġwalk": 1065,
      "Suddenly": 1066,
      "Ġthink": 1067,
      "Ġtow": 1068,
      "Ġrain": 1069,
      "Ġlisten": 1070,
      "Ġrepl": 1071,
      "Ġdis": 1072,
      "Ġeveryone": 1073,
      "Ġblue": 1074,
      "Ġforest": 1075,
      "Ġvo": 1076,
      "Ġbro": 1077,
      "Ġfish": 1078,
      "Ġapp": 1079,
      "irst": 1080,
      "ĠSp": 1081,
      "Ġimport": 1082,
      "Ġhands": 1083,
      "bbit": 1084,
      "Ġflowers": 1085,
      "Ġshowed": 1086,
      "gan": 1087,
      "Ġnear": 1088,
      "She": 1089,
      "Ġstrong": 1090,
      "Ġac": 1091,
      "Ġwork": 1092,
      "Ġde": 1093,
      "Ġwonder": 1094,
      "Ġslide": 1095,
      "Ġbright": 1096,
      "Ġimportant": 1097,
      "bbed": 1098,
      "bye": 1099,
      "Ġwatch": 1100,
      "llow": 1101,
      "Ġquickly": 1102,
      "Ġshout": 1103,
      "Ġrabbit": 1104,
      "Ġhead": 1105,
      "Ġwatched": 1106,
      "Ġright": 1107,
      "Ġstore": 1108,
      "Ġsound": 1109,
      "Ġreplied": 1110,
      "Ġtal": 1111,
      "fere": 1112,
      "day": 1113,
      "Ġus": 1114,
      "Ġmean": 1115,
      "Ġdiffere": 1116,
      "Ġsqu": 1117,
      "Ġsure": 1118,
      "Ġye": 1119,
      "ered": 1120,
      "So": 1121,
      "Ġplace": 1122,
      "Ġuse": 1123,
      "Ġboat": 1124,
      "Ġwhere": 1125,
      "Ġmor": 1126,
      "ange": 1127,
      "Ġbeen": 1128,
      "Ġfollow": 1129,
      "ath": 1130,
      "Ġdress": 1131,
      "Ġstick": 1132,
      "ĠBob": 1133,
      "Ġokay": 1134,
      "Ġbecame": 1135,
      "Ġtra": 1136,
      "Ġgoodbye": 1137,
      "Ġchild": 1138,
      "lease": 1139,
      "ng": 1140,
      "Ġask": 1141,
      "ĠN": 1142,
      "Ġyell": 1143,
      "Ġcloser": 1144,
      "Ġface": 1145,
      "Ġmag": 1146,
      "Ġhigh": 1147,
      "Ġdifferent": 1148,
      "Ġwarm": 1149,
      "We": 1150,
      "Ġcuri": 1151,
      "Ġvoice": 1152,
      "co": 1153,
      "aught": 1154,
      "Ġcr": 1155,
      "ached": 1156,
      "Ġnight": 1157,
      "Ġforg": 1158,
      "ĠR": 1159,
      "Ġhop": 1160,
      "Ġbel": 1161,
      "Ġour": 1162,
      "ĠSpot": 1163,
      "ired": 1164,
      "leep": 1165,
      "ĠMommy": 1166,
      "Jo": 1167,
      "ĠSue": 1168,
      "Ġtell": 1169,
      "ount": 1170,
      "Ġcurious": 1171,
      "Ġpa": 1172,
      "more": 1173,
      "Ġanymore": 1174,
      "Ġcook": 1175,
      "Ġdoes": 1176,
      "Ġpu": 1177,
      "Ġcake": 1178,
      "Ġthree": 1179,
      "ndma": 1180,
      "Look": 1181,
      "Ġfav": 1182,
      "Ġopen": 1183,
      "itc": 1184,
      "Ġgrabbed": 1185,
      "ĠJohn": 1186,
      "Anna": 1187,
      "Ġfirst": 1188,
      "Sara": 1189,
      "Ġbutter": 1190,
      "Ġcont": 1191,
      "Her": 1192,
      "Ġz": 1193,
      "Ġam": 1194,
      "Ġpain": 1195,
      "imes": 1196,
      "Ġper": 1197,
      "Ġbit": 1198,
      "Ġlea": 1199,
      "Ġhelped": 1200,
      "Ġpull": 1201,
      "orn": 1202,
      "Ġba": 1203,
      "Ġbus": 1204,
      "Ġbirds": 1205,
      "ĠTh": 1206,
      "ĠEveryone": 1207,
      "Ġsweet": 1208,
      "unny": 1209,
      "Ġkid": 1210,
      "Ġfell": 1211,
      "Ġjumped": 1212,
      "After": 1213,
      "Ġhappened": 1214,
      "ila": 1215,
      "Ġonly": 1216,
      "Ġgrass": 1217,
      "isy": 1218,
      "iss": 1219,
      "ĠJane": 1220,
      "Ġmon": 1221,
      "ppy": 1222,
      "Ġbrother": 1223,
      "Ġhere": 1224,
      "itchen": 1225,
      "Ġreached": 1226,
      "Ġkitchen": 1227,
      "Ġsand": 1228,
      "Ġsing": 1229,
      "Ġglad": 1230,
      "Ġflo": 1231,
      "Ġrealized": 1232,
      "Can": 1233,
      "Ġblock": 1234,
      "Ġstory": 1235,
      "nts": 1236,
      "Ġfire": 1237,
      "ĠAs": 1238,
      "Ġru": 1239,
      "Ġdr": 1240,
      "Ġstop": 1241,
      "Ġthrough": 1242,
      "Ġrest": 1243,
      "Ġhaving": 1244,
      "ĠSarah": 1245,
      "Ġate": 1246,
      "Ġyummy": 1247,
      "Ġbeh": 1248,
      "zy": 1249,
      "Ġbegan": 1250,
      "Ġmum": 1251,
      "Ġready": 1252,
      "Ġsees": 1253,
      "where": 1254,
      "Ġreally": 1255,
      "ater": 1256,
      "Ġgame": 1257,
      "Ġtri": 1258,
      "Ġpare": 1259,
      "Ġhimself": 1260,
      "Ġprin": 1261,
      "Ġmess": 1262,
      "Ġsoft": 1263,
      "Ġdraw": 1264,
      "fully": 1265,
      "Ġless": 1266,
      "Ġworld": 1267,
      "Ġshouted": 1268,
      "ather": 1269,
      "Ġtired": 1270,
      "Ġmagic": 1271,
      "Ġunderst": 1272,
      "Ġlady": 1273,
      "olly": 1274,
      "Ġdone": 1275,
      "Ġfavor": 1276,
      "ins": 1277,
      "ĠLet": 1278,
      "Ġthing": 1279,
      "ster": 1280,
      "Ġfavorite": 1281,
      "Ġfill": 1282,
      "Ġmaking": 1283,
      "Ġseen": 1284,
      "Ġwaved": 1285,
      "uff": 1286,
      "Ġused": 1287,
      "Ġfix": 1288,
      "'re": 1289,
      "sh": 1290,
      "Ġhat": 1291,
      "Ġcoming": 1292,
      "ken": 1293,
      "Ġcut": 1294,
      "Ġste": 1295,
      "Ġbutterf": 1296,
      "Ġpond": 1297,
      "Ġtast": 1298,
      "Ġkids": 1299,
      "ĠJoe": 1300,
      "Ġbunny": 1301,
      "Ġdelic": 1302,
      "Ġworry": 1303,
      "Mommy": 1304,
      "Ġtop": 1305,
      "Ġparents": 1306,
      "Ġpart": 1307,
      "Ġduck": 1308,
      "Ġfunny": 1309,
      "Ġwhy": 1310,
      "Ġflower": 1311,
      "Ġpap": 1312,
      "bo": 1313,
      "Ġcatch": 1314,
      "ient": 1315,
      "Ġprom": 1316,
      "Ġmouse": 1317,
      "Ġname": 1318,
      "ĠDo": 1319,
      "ign": 1320,
      "John": 1321,
      "Ġpretend": 1322,
      "Ġswim": 1323,
      "mer": 1324,
      "iver": 1325,
      "air": 1326,
      "akes": 1327,
      "Ġanother": 1328,
      "rel": 1329,
      "ĠThat": 1330,
      "Ġfull": 1331,
      "Ġtouch": 1332,
      "ation": 1333,
      "As": 1334,
      "Ġpus": 1335,
      "Wow": 1336,
      "Ġcool": 1337,
      "Ġworked": 1338,
      "Timmy": 1339,
      "Ġlight": 1340,
      "aisy": 1341,
      "Ġsurprise": 1342,
      "Ġfro": 1343,
      "oney": 1344,
      "Ġlooks": 1345,
      "eddy": 1346,
      "Ġcars": 1347,
      "ĠCan": 1348,
      "Ġcried": 1349,
      "Ġgi": 1350,
      "Ġcra": 1351,
      "Ġhair": 1352,
      "Ġhopped": 1353,
      "Ġtrees": 1354,
      "Ġdro": 1355,
      "ards": 1356,
      "Ġgreen": 1357,
      "Ġspot": 1358,
      "Ġsmell": 1359,
      "Ġremembered": 1360,
      "Don": 1361,
      "Ġyears": 1362,
      "Ġdin": 1363,
      "Ġbag": 1364,
      "Ġlesson": 1365,
      "Ġrunning": 1366,
      "Ġsho": 1367,
      "Ġthank": 1368,
      "Ġ-": 1369,
      "Ġset": 1370,
      "ued": 1371,
      "ely": 1372,
      "andy": 1373,
      "hy": 1374,
      "Ġslow": 1375,
      "Ġread": 1376,
      "Ġwood": 1377,
      "Ġbehind": 1378,
      "Ġdark": 1379,
      "Ġsleep": 1380,
      "Ġhappily": 1381,
      "ssed": 1382,
      "Ġdri": 1383,
      "Ġneeded": 1384,
      "Ġwindow": 1385,
      "Ġsat": 1386,
      "Ġperf": 1387,
      "Ġcarefully": 1388,
      "Ġhold": 1389,
      "Ġfloor": 1390,
      "\".": 1391,
      "Ġyellow": 1392,
      "ĠIn": 1393,
      "Ġbow": 1394,
      "Ġcla": 1395,
      "Sam": 1396,
      "ul": 1397,
      "ren": 1398,
      "Ġfinished": 1399,
      "Ġdoing": 1400,
      "Ġwished": 1401,
      "Ġsurprised": 1402,
      "Ġcold": 1403,
      "Ġtall": 1404,
      "Ġhole": 1405,
      "aring": 1406,
      "Ġpaper": 1407,
      "ike": 1408,
      "Ġmove": 1409,
      "Ġenjoyed": 1410,
      "Ġbuy": 1411,
      "Ġheld": 1412,
      "Ġbutterfly": 1413,
      "Ġair": 1414,
      "inally": 1415,
      "Ġlost": 1416,
      "ĠAfter": 1417,
      "Ġblocks": 1418,
      "Ġlaugh": 1419,
      "TMs": 1420,
      "uit": 1421,
      "Ġanything": 1422,
      "Ġdream": 1423,
      "Ġleft": 1424,
      "Ġice": 1425,
      "Ġarri": 1426,
      "Ġswing": 1427,
      "Ġdelicious": 1428,
      "Ġrel": 1429,
      "Ġlikes": 1430,
      "ens": 1431,
      "Ġherself": 1432,
      "Ġlion": 1433,
      "Ġfair": 1434,
      "Ġfrog": 1435,
      "ined": 1436,
      "Ġwrong": 1437,
      "Ġfollowed": 1438,
      "Ġhill": 1439,
      "Ġpre": 1440,
      "Ġchildren": 1441,
      "Ġcontin": 1442,
      "Ġhun": 1443,
      "ield": 1444,
      "Ġclose": 1445,
      "reed": 1446,
      "ream": 1447,
      "Ġfriendly": 1448,
      "Ġhid": 1449,
      "cess": 1450,
      "Ġforgot": 1451,
      "Ġhot": 1452,
      "Ġcast": 1453,
      "Ġable": 1454,
      "Ġhear": 1455,
      "Ġarrived": 1456,
      "lf": 1457,
      "Ġdir": 1458,
      "ĠSally": 1459,
      "Ġbuild": 1460,
      "Ġwonderful": 1461,
      "Ġbaby": 1462,
      "Ġfilled": 1463,
      "Ġarm": 1464,
      "Ġtight": 1465,
      "ĠBenny": 1466,
      "Ġunderstand": 1467,
      "Ġmight": 1468,
      "Ġgone": 1469,
      "asure": 1470,
      "Ġtable": 1471,
      "Ġbug": 1472,
      "Ġsnow": 1473,
      "Hell": 1474,
      "Hello": 1475,
      "Ġel": 1476,
      "Ġcreat": 1477,
      "Then": 1478,
      "Ġbooks": 1479,
      "Ġmat": 1480,
      "ds": 1481,
      "Ġelse": 1482,
      "ner": 1483,
      "Ġgent": 1484,
      "ich": 1485,
      "Ġcolors": 1486,
      "Ġcontinued": 1487,
      "Ġyes": 1488,
      "ĠEm": 1489,
      "ĠDaisy": 1490,
      "Jack": 1491,
      "irrel": 1492,
      "ey": 1493,
      "ĠNow": 1494,
      "Ġsong": 1495,
      "ross": 1496,
      "Ġstayed": 1497,
      "Ġplease": 1498,
      "Ġbroken": 1499,
      "Ġsomeone": 1500,
      "Ġleaves": 1501,
      "ĠThere": 1502,
      "av": 1503,
      "Ġwall": 1504,
      "Ġpat": 1505,
      "Ġfinally": 1506,
      "Ġenough": 1507,
      "From": 1508,
      "room": 1509,
      "Ġmorning": 1510,
      "Ġsquirrel": 1511,
      "Ġgetting": 1512,
      "Ġamazing": 1513,
      "Ġagreed": 1514,
      "Ġcount": 1515,
      "Ġvis": 1516,
      "sp": 1517,
      "Ġscary": 1518,
      "ask": 1519,
      "ash": 1520,
      "Ġbreak": 1521,
      "gon": 1522,
      "Ġpink": 1523,
      "Ġcomp": 1524,
      "Ġpoin": 1525,
      "Ġperfect": 1526,
      "'ll": 1527,
      "Ġwants": 1528,
      "Ġmoment": 1529,
      "At": 1530,
      "icy": 1531,
      "Ġcastle": 1532,
      "Ġgrandma": 1533,
      "Ġpi": 1534,
      "Ġtrying": 1535,
      "Ġfew": 1536,
      "Ġju": 1537,
      "ĠBilly": 1538,
      "row": 1539,
      "ĠLila": 1540,
      "oom": 1541,
      "Ġmar": 1542,
      "ance": 1543,
      "Ġmother": 1544,
      "Ġothers": 1545,
      "Ġturned": 1546,
      "ama": 1547,
      "Ġpuppy": 1548,
      "ries": 1549,
      "Ġdinner": 1550,
      "rot": 1551,
      "Ġhungry": 1552,
      "oup": 1553,
      "ced": 1554,
      "Ġbeach": 1555,
      "OK": 1556,
      "Ġfight": 1557,
      "Ġwasn": 1558,
      "Ġwet": 1559,
      "Ġdaddy": 1560,
      "ĠK": 1561,
      "Ġmus": 1562,
      "Ġsometimes": 1563,
      "Ġjoy": 1564,
      "Ġcream": 1565,
      "Ġmet": 1566,
      "Ġstrange": 1567,
      "Ġsail": 1568,
      "Ġclimbed": 1569,
      "ĠThis": 1570,
      "Ġroll": 1571,
      "oring": 1572,
      "ons": 1573,
      "ence": 1574,
      "Ġpictures": 1575,
      "Ġbrought": 1576,
      "red": 1577,
      "Ġfur": 1578,
      "Ġwhite": 1579,
      "Ġfall": 1580,
      "Ġlistened": 1581,
      "uffy": 1582,
      "man": 1583,
      "ee": 1584,
      "wl": 1585,
      "Ġspl": 1586,
      "Ġcookies": 1587,
      "Ġspark": 1588,
      "Ġballoon": 1589,
      "Ġclot": 1590,
      "ĠTommy": 1591,
      "Ġsear": 1592,
      "ated": 1593,
      "Ġclothes": 1594,
      "His": 1595,
      "ucky": 1596,
      "Ġeverything": 1597,
      "der": 1598,
      "ever": 1599,
      "ĠTo": 1600,
      "amp": 1601,
      "This": 1602,
      "Ġtalk": 1603,
      "ĠWhat": 1604,
      "Ġamazed": 1605,
      "Ġsmiles": 1606,
      "Ġwoods": 1607,
      "ĠMaybe": 1608,
      "Ġdeep": 1609,
      "Ġride": 1610,
      "Ġtail": 1611,
      "ĠJen": 1612,
      "Ġpol": 1613,
      "Ġthre": 1614,
      "pping": 1615,
      "Ġmakes": 1616,
      "Ġwaited": 1617,
      "Ġalone": 1618,
      "ĠGra": 1619,
      "ister": 1620,
      "eter": 1621,
      "ower": 1622,
      "os": 1623,
      "Ġsit": 1624,
      "key": 1625,
      "Ġgrow": 1626,
      "Ġpie": 1627,
      "Ġpet": 1628,
      "Ġvisit": 1629,
      "elc": 1630,
      "ctor": 1631,
      "med": 1632,
      "Ġlake": 1633,
      "Ġwon": 1634,
      "Ġdanger": 1635,
      "Ġmusic": 1636,
      "ott": 1637,
      "me": 1638,
      "Ġplan": 1639,
      "Ġtreat": 1640,
      "Ġleave": 1641,
      "zz": 1642,
      "Ġpulled": 1643,
      "Ġside": 1644,
      "Oh": 1645,
      "ope": 1646,
      "Ġsilly": 1647,
      "Ġcloud": 1648,
      "Ġland": 1649,
      "Ġfox": 1650,
      "Ġflying": 1651,
      "Ġfield": 1652,
      "ugg": 1653,
      "Ġhide": 1654,
      "Ġtowards": 1655,
      "thy": 1656,
      "ang": 1657,
      "Ġpromised": 1658,
      "Ġbelie": 1659,
      "Ġteddy": 1660,
      "Max": 1661,
      "ames": 1662,
      "ĠAmy": 1663,
      "cket": 1664,
      "Ġshared": 1665,
      "Ġsec": 1666,
      "ained": 1667,
      "Ġbigger": 1668,
      "ix": 1669,
      "orm": 1670,
      "Ġasks": 1671,
      "eces": 1672,
      "igg": 1673,
      "Ġowner": 1674,
      "Ġpieces": 1675,
      "gs": 1676,
      "ually": 1677,
      "Ġbran": 1678,
      "Ġslowly": 1679,
      "Ġworried": 1680,
      "Ġmoney": 1681,
      "ĠAll": 1682,
      "Ġcup": 1683,
      "Ġblank": 1684,
      "Ġgu": 1685,
      "iet": 1686,
      "Ġsuch": 1687,
      "Ġmoral": 1688,
      "Ġem": 1689,
      "Ġsister": 1690,
      "Ġtreasure": 1691,
      "ling": 1692,
      "Ġparty": 1693,
      "Ġmagical": 1694,
      "Ġpen": 1695,
      "Ġrace": 1696,
      "Ġnap": 1697,
      "fort": 1698,
      "cle": 1699,
      "Ġshap": 1700,
      "Ġgrate": 1701,
      "Ġblanket": 1702,
      "ises": 1703,
      "avy": 1704,
      "ased": 1705,
      "Ġfaster": 1706,
      "Ġplant": 1707,
      "Ġve": 1708,
      "Ġcolorful": 1709,
      "ze": 1710,
      "ĠJim": 1711,
      "Ġdance": 1712,
      "Ġwear": 1713,
      "Ġreach": 1714,
      "Ġmust": 1715,
      "ire": 1716,
      "sw": 1717,
      "Ġgrateful": 1718,
      "Ġriver": 1719,
      "Ġquiet": 1720,
      "Ġansw": 1721,
      "Ġthinks": 1722,
      "Ġmost": 1723,
      "unch": 1724,
      "Ġgif": 1725,
      "Ġliving": 1726,
      "ol": 1727,
      "Ġjob": 1728,
      "Maybe": 1729,
      "Ġcho": 1730,
      "Ġeverywhere": 1731,
      "less": 1732,
      "Ġsnack": 1733,
      "Ġpaint": 1734,
      "app": 1735,
      "Ġbott": 1736,
      "Ġele": 1737,
      "Okay": 1738,
      "Ġpro": 1739,
      "Ġruns": 1740,
      "Ġcandy": 1741,
      "Ġpot": 1742,
      "ph": 1743,
      "up": 1744,
      "Ġmonster": 1745,
      "Ġwelc": 1746,
      "ĠFl": 1747,
      "Ġjoin": 1748,
      "Ġdragon": 1749,
      "Ġje": 1750,
      "set": 1751,
      "Ġhelping": 1752,
      "ming": 1753,
      "outh": 1754,
      "Ġbar": 1755,
      "Ġbike": 1756,
      "Ġacross": 1757,
      "Ġfarmer": 1758,
      "Ġdolls": 1759,
      "Ġstepped": 1760,
      "Ġatt": 1761,
      "Ġmouth": 1762,
      "Ġblack": 1763,
      "bble": 1764,
      "Ġcarrot": 1765,
      "Ġtrain": 1766,
      "ipped": 1767,
      "ĠMolly": 1768,
      "Ġbroke": 1769,
      "ĠJill": 1770,
      "ere": 1771,
      "Ġprincess": 1772,
      "Ġwouldn": 1773,
      "Ġhig": 1774,
      "Ġsame": 1775,
      "ident": 1776,
      "Ġsmart": 1777,
      "Ġdangerous": 1778,
      "Ġscream": 1779,
      "Ġwin": 1780,
      "Ġdisapp": 1781,
      "Ġheal": 1782,
      "Ġspr": 1783,
      "Ġacc": 1784,
      "eared": 1785,
      "Ġheavy": 1786,
      "Ġcrying": 1787,
      "ear": 1788,
      "Ġmix": 1789,
      "ored": 1790,
      "Ġsign": 1791,
      "Ġbee": 1792,
      "Sure": 1793,
      "Ġbowl": 1794,
      "Ġbelieve": 1795,
      "Ġclosed": 1796,
      "Ġwords": 1797,
      "Ġdoctor": 1798,
      "Ġdirty": 1799,
      "ĠDaddy": 1800,
      "Ġstre": 1801,
      "Ġteac": 1802,
      "Ġcoll": 1803,
      "iting": 1804,
      "Ġstuck": 1805,
      "Ġfruit": 1806,
      "Ġthrew": 1807,
      "Why": 1808,
      "Ġbutt": 1809,
      "Ġeating": 1810,
      "Ġbite": 1811,
      "chool": 1812,
      "Ġtown": 1813,
      "Ġmonkey": 1814,
      "TMt": 1815,
      "Ġbath": 1816,
      "Ġbuck": 1817,
      "ĠMr": 1818,
      "Ġhigher": 1819,
      "Ġheart": 1820,
      "Ġcheered": 1821,
      "Ġtwins": 1822,
      "de": 1823,
      "br": 1824,
      "ord": 1825,
      "Ġneigh": 1826,
      "Ġschool": 1827,
      "Ġstand": 1828,
      "ventually": 1829,
      "Ġfairy": 1830,
      "Ġpers": 1831,
      "Ġclapped": 1832,
      "Ġneighb": 1833,
      "Ġpack": 1834,
      "umb": 1835,
      "Ġsuddenly": 1836,
      "cked": 1837,
      "Ġtower": 1838,
      "Hi": 1839,
      "asket": 1840,
      "Ġteacher": 1841,
      "Ġhit": 1842,
      "Ġlonger": 1843,
      "Ġpast": 1844,
      "Ġwithout": 1845,
      "Ġbasket": 1846,
      "Ġdry": 1847,
      "ract": 1848,
      "ier": 1849,
      "Ġaccident": 1850,
      "Ġmin": 1851,
      "Ġfree": 1852,
      "Ġcray": 1853,
      "Ġtoday": 1854,
      "Ġdrove": 1855,
      "Ġhoped": 1856,
      "Ġwings": 1857,
      "Mia": 1858,
      "Ġsmo": 1859,
      "Ġpushed": 1860,
      "Ġyard": 1861,
      "Ġgentle": 1862,
      "Finally": 1863,
      "Ġcour": 1864,
      "ney": 1865,
      "cy": 1866,
      "Ġfeels": 1867,
      "Ġpocket": 1868,
      "ass": 1869,
      "ors": 1870,
      "Ġhappen": 1871,
      "Ġjour": 1872,
      "Ġforget": 1873,
      "Ġfence": 1874,
      "Ġbrown": 1875,
      "Ġchair": 1876,
      "Ġlon": 1877,
      "orrow": 1878,
      "ead": 1879,
      "Ġgames": 1880,
      "Ġalong": 1881,
      "vel": 1882,
      "Ġswings": 1883,
      "Ġsea": 1884,
      "Ġcorn": 1885,
      "Ġcourse": 1886,
      "Ġsang": 1887,
      "Ġexplained": 1888,
      "ts": 1889,
      "Ġlonely": 1890,
      "Ġadventures": 1891,
      "Ġpiece": 1892,
      "Ġinst": 1893,
      "Ġsinging": 1894,
      "Ġsecret": 1895,
      "ment": 1896,
      "ountain": 1897,
      "Ġwelcome": 1898,
      "Ġupset": 1899,
      "Ġowl": 1900,
      "issed": 1901,
      "Ġswam": 1902,
      "Ġnoises": 1903,
      "Ġbring": 1904,
      "Ġmoved": 1905,
      "Ġapple": 1906,
      "Ġshoes": 1907,
      "Ġyoung": 1908,
      "Ġstories": 1909,
      "yard": 1910,
      "ward": 1911,
      "Ġtrou": 1912,
      "Ġplac": 1913,
      "Ġbackyard": 1914,
      "Ġstars": 1915,
      "Ġtaking": 1916,
      "ho": 1917,
      "Ġexploring": 1918,
      "ĠEmma": 1919,
      "ible": 1920,
      "Ġdist": 1921,
      "itting": 1922,
      "phant": 1923,
      "Ġturns": 1924,
      "Ġlate": 1925,
      "Ġthrow": 1926,
      "Ġrocks": 1927,
      "Ġdropped": 1928,
      "Ġseemed": 1929,
      "oun": 1930,
      "Ġtiny": 1931,
      "Ġexp": 1932,
      "Ġwhe": 1933,
      "ĠMary": 1934,
      "fused": 1935,
      "Ġlunch": 1936,
      "Ġelephant": 1937,
      "ches": 1938,
      "Ġbucket": 1939,
      "Ġneck": 1940,
      "Ġsoup": 1941,
      "Ġbelong": 1942,
      "Ġnaught": 1943,
      "bby": 1944,
      "Ġshop": 1945,
      "Ġjar": 1946,
      "Ġnaughty": 1947,
      "Ġshook": 1948,
      "bow": 1949,
      "Ġwise": 1950,
      "Ġcaught": 1951,
      "Ġca": 1952,
      "Ġrelie": 1953,
      "Ġmail": 1954,
      "Ġes": 1955,
      "ush": 1956,
      "Ġnearby": 1957,
      "ĠFluffy": 1958,
      "ek": 1959,
      "Ġhugs": 1960,
      "Ġthough": 1961,
      "Ġwoke": 1962,
      "Ġdes": 1963,
      "ocked": 1964,
      "Ġwish": 1965,
      "Ġwell": 1966,
      "Ġ3": 1967,
      "Ġdrink": 1968,
      "Ġstreet": 1969,
      "ape": 1970,
      "Ġorange": 1971,
      "Ġph": 1972,
      "Ġyear": 1973,
      "Ġben": 1974,
      "ions": 1975,
      "Ġbusy": 1976,
      "llo": 1977,
      "Ġpig": 1978,
      "ces": 1979,
      "Ġkey": 1980,
      "Ġsu": 1981,
      "adow": 1982,
      "Lila": 1983,
      "Ġmiss": 1984,
      "Ġinv": 1985,
      "Ġcou": 1986,
      "sy": 1987,
      "cing": 1988,
      "Ġrainbow": 1989,
      "Ġbat": 1990,
      "Ġpurp": 1991,
      "ung": 1992,
      "ining": 1993,
      "Ġstar": 1994,
      "Ġtom": 1995,
      "Ġjuice": 1996,
      "aughter": 1997,
      "col": 1998,
      "ity": 1999,
      "Ġhuge": 2000,
      "ĠGrandma": 2001,
      "Ġob": 2002,
      "Ġforever": 2003,
      "ĠInside": 2004,
      "Ġshapes": 2005,
      "Ġbranch": 2006,
      "ours": 2007,
      "to": 2008,
      "Ġfarm": 2009,
      "Ġcow": 2010,
      "Do": 2011,
      "Ġarms": 2012,
      "weet": 2013,
      "vered": 2014,
      "Ġaf": 2015,
      "idge": 2016,
      "ĠFinally": 2017,
      "Ġnest": 2018,
      "Ġstu": 2019,
      "cer": 2020,
      "And": 2021,
      "Ġmark": 2022,
      "Ġpurple": 2023,
      "Ġnose": 2024,
      "Ġsick": 2025,
      "Ġround": 2026,
      "shine": 2027,
      "Ġrelieved": 2028,
      "Ġpeace": 2029,
      "Ġcarry": 2030,
      "Ġwondered": 2031,
      "Ġfit": 2032,
      "Ġdaughter": 2033,
      "ittens": 2034,
      "Ġlife": 2035,
      "Ġwhist": 2036,
      "Ġswimming": 2037,
      "Ġresp": 2038,
      "Ġboun": 2039,
      "Ġgift": 2040,
      "Ġnothing": 2041,
      "ail": 2042,
      "Ġexciting": 2043,
      "Ġsitting": 2044,
      "Ġcir": 2045,
      "ĠThank": 2046,
      "pper": 2047,
      "Ġmine": 2048,
      "Ġsunshine": 2049,
      "Ġret": 2050,
      "raid": 2051,
      "Ġmad": 2052,
      "Ġafraid": 2053,
      "Ġpatient": 2054,
      "Ġkite": 2055,
      "Ġjourney": 2056,
      "Ġmil": 2057,
      "gg": 2058,
      "itch": 2059,
      "Ġletter": 2060,
      "fish": 2061,
      "Ġcreature": 2062,
      "ose": 2063,
      "sting": 2064,
      "Ġonto": 2065,
      "thday": 2066,
      "uched": 2067,
      "Ġtouched": 2068,
      "Ġdays": 2069,
      "Ġhello": 2070,
      "ese": 2071,
      "Ġreturn": 2072,
      "ĠO": 2073,
      "Ġdisco": 2074,
      "let": 2075,
      "ĠSoon": 2076,
      "Ġtakes": 2077,
      "Ġdriver": 2078,
      "Ġaccidentally": 2079,
      "Ġintere": 2080,
      "Ġking": 2081,
      "Ġlaughing": 2082,
      "Ġspoon": 2083,
      "Ġcute": 2084,
      "Ġfan": 2085,
      "Ġpower": 2086,
      "itten": 2087,
      "ĠSammy": 2088,
      "Ġholding": 2089,
      "Ġsounds": 2090,
      "Ġcomes": 2091,
      "Ġlift": 2092,
      "Ġcollect": 2093,
      "Ġcoat": 2094,
      "Ġcave": 2095,
      "Ġcomfort": 2096,
      "Ġgigg": 2097,
      "Ġband": 2098,
      "ness": 2099,
      "Later": 2100,
      "Ġshell": 2101,
      "Ġsunny": 2102,
      "ĠMama": 2103,
      "sc": 2104,
      "board": 2105,
      "Ġinstead": 2106,
      "Ġinc": 2107,
      "Ġcozy": 2108,
      "Ġwra": 2109,
      "irt": 2110,
      "Ġfing": 2111,
      "Ġact": 2112,
      "Ġear": 2113,
      "Ġbench": 2114,
      "Ġbirthday": 2115,
      "Ġce": 2116,
      "Ġhor": 2117,
      "Ġsearched": 2118,
      "Ġpointed": 2119,
      "Ġmist": 2120,
      "Ġgrab": 2121,
      "ped": 2122,
      "Ġlucky": 2123,
      "Ġsmiling": 2124,
      "Ġimag": 2125,
      "Ġpromise": 2126,
      "Ġgather": 2127,
      "og": 2128,
      "Ġbought": 2129,
      "Ġeas": 2130,
      "ten": 2131,
      "alm": 2132,
      "Ġwatching": 2133,
      "round": 2134,
      "Ġspo": 2135,
      "Ġmilk": 2136,
      "Ġsandw": 2137,
      "ize": 2138,
      "Ġpres": 2139,
      "Ġpudd": 2140,
      "Ġstorm": 2141,
      "Of": 2142,
      "Ġkick": 2143,
      "Ġanyone": 2144,
      "Ġwide": 2145,
      "Ġtasty": 2146,
      "ball": 2147,
      "oman": 2148,
      "Ġcheese": 2149,
      "Ġlater": 2150,
      "ove": 2151,
      "gged": 2152,
      "Ġspin": 2153,
      "blem": 2154,
      "unt": 2155,
      "Ġhope": 2156,
      "Ġwoman": 2157,
      "Hey": 2158,
      "Ġtalked": 2159,
      "Ġproblem": 2160,
      "eth": 2161,
      "Bob": 2162,
      "Ġent": 2163,
      "Ġroad": 2164,
      "arp": 2165,
      "Ġbread": 2166,
      "Tommy": 2167,
      "Ġhealthy": 2168,
      "Ġshining": 2169,
      "Ġsuc": 2170,
      "Ġadm": 2171,
      "Ġtrouble": 2172,
      "Ġbutton": 2173,
      "Ġzoom": 2174,
      "Ġsharp": 2175,
      "ub": 2176,
      "Ġperson": 2177,
      "Ġspid": 2178,
      "Ġbottle": 2179,
      "aur": 2180,
      "Ġinteresting": 2181,
      "Ġplane": 2182,
      "Ġrope": 2183,
      "Ġgives": 2184,
      "Ġbush": 2185,
      "els": 2186,
      "Ġlovely": 2187,
      "ĠTweet": 2188,
      "Ġsaf": 2189,
      "Ġclouds": 2190,
      "ĠCome": 2191,
      "Ġpresent": 2192,
      "owed": 2193,
      "Ġpract": 2194,
      "Ġhoney": 2195,
      "ĠJimmy": 2196,
      "Ġmatter": 2197,
      "Ġquest": 2198,
      "Ġsmelled": 2199,
      "Ġclever": 2200,
      "isa": 2201,
      "Ġwhole": 2202,
      "Ġmyster": 2203,
      "Ġvill": 2204,
      "ĠWith": 2205,
      "Ġwhich": 2206,
      "Ġap": 2207,
      "ont": 2208,
      "Ġducks": 2209,
      "Ġspotted": 2210,
      "Ġprot": 2211,
      "Ġrolled": 2212,
      "ndp": 2213,
      "Ġmeet": 2214,
      "Ġcheer": 2215,
      "Ġkiss": 2216,
      "epend": 2217,
      "Ġsur": 2218,
      "Ġapples": 2219,
      "Ġappeared": 2220,
      "Ġhon": 2221,
      "Ġtasted": 2222,
      "Ġpath": 2223,
      "Ġgiant": 2224,
      "Ġcrayons": 2225,
      "Ġhorse": 2226,
      "Ġpop": 2227,
      "Ġorgan": 2228,
      "Ġfront": 2229,
      "Ġzoo": 2230,
      "Ġprotect": 2231,
      "ond": 2232,
      "Ġpile": 2233,
      "cean": 2234,
      "Ġputs": 2235,
      "Ġocean": 2236,
      "oose": 2237,
      "een": 2238,
      "Ġpar": 2239,
      "Ġdanced": 2240,
      "lla": 2241,
      "ching": 2242,
      "Ġlay": 2243,
      "Ġsnowman": 2244,
      "Ġfeather": 2245,
      "ale": 2246,
      "Lucy": 2247,
      "Ġmach": 2248,
      "erly": 2249,
      "Ġtrip": 2250,
      "Every": 2251,
      "Ġthin": 2252,
      "Ġshr": 2253,
      "Ġtun": 2254,
      "amed": 2255,
      "Ġeag": 2256,
      "Ġneighbor": 2257,
      "Ġpuzz": 2258,
      "ÅĵI": 2259,
      "Ġloves": 2260,
      "Ġplaces": 2261,
      "Good": 2262,
      "Molly": 2263,
      "Ġdi": 2264,
      "eb": 2265,
      "izz": 2266,
      "Ġsack": 2267,
      "Ġwearing": 2268,
      "Ġasleep": 2269,
      "Ġseat": 2270,
      "Jim": 2271,
      "In": 2272,
      "Ġmud": 2273,
      "nic": 2274,
      "Ġimpre": 2275,
      "Ġspent": 2276,
      "Ġminut": 2277,
      "ular": 2278,
      "Ġwild": 2279,
      "Ġmed": 2280,
      "Ġsplas": 2281,
      "Ġanswer": 2282,
      "Just": 2283,
      "Ġpill": 2284,
      "itty": 2285,
      "Ġpicnic": 2286,
      "Ġemb": 2287,
      "Ġval": 2288,
      "nn": 2289,
      "ometimes": 2290,
      "Ġcorner": 2291,
      "la": 2292,
      "Ġsnake": 2293,
      "Ġfoot": 2294,
      "Ġbuilding": 2295,
      "Ġscreamed": 2296,
      "Ġslid": 2297,
      "ert": 2298,
      "ndpa": 2299,
      "Ġmind": 2300,
      "Ġsupp": 2301,
      "Ġrespect": 2302,
      "cks": 2303,
      "Ġdirt": 2304,
      "Ġlad": 2305,
      "ĠMittens": 2306,
      "Ġgently": 2307,
      "arge": 2308,
      "Ġoven": 2309,
      "Come": 2310,
      "ĠEmily": 2311,
      "Ġsal": 2312,
      "umber": 2313,
      "St": 2314,
      "hile": 2315,
      "Ġmountain": 2316,
      "Ġconfused": 2317,
      "Ġspider": 2318,
      "Ġbark": 2319,
      "ones": 2320,
      "Ġlive": 2321,
      "Ġdelight": 2322,
      "Ġwrite": 2323,
      "Ġcart": 2324,
      "Ġcard": 2325,
      "Ġworm": 2326,
      "Ġpass": 2327,
      "Ġremind": 2328,
      "Ġfurry": 2329,
      "Ġign": 2330,
      "Ġembar": 2331,
      "Ġembarra": 2332,
      "Ġwhenever": 2333,
      "Ġeventually": 2334,
      "Ġhelpful": 2335,
      "lex": 2336,
      "Ġtid": 2337,
      "Ġcookie": 2338,
      "Ġphone": 2339,
      "Ġser": 2340,
      "Ġbell": 2341,
      "Ġcouch": 2342,
      "Soon": 2343,
      "Ġfeet": 2344,
      "Ġfaces": 2345,
      "Ġrec": 2346,
      "Ġtalking": 2347,
      "Mum": 2348,
      "Ġgoes": 2349,
      "Ġladder": 2350,
      "Ġlast": 2351,
      "Ġcoin": 2352,
      "Ġteach": 2353,
      "Ġchick": 2354,
      "ex": 2355,
      "Ġblew": 2356,
      "unk": 2357,
      "Ġwave": 2358,
      "Ġsmooth": 2359,
      "Ġring": 2360,
      "ĠSt": 2361,
      "mo": 2362,
      "Ġpaw": 2363,
      "bbles": 2364,
      "als": 2365,
      "Ġban": 2366,
      "Ġpan": 2367,
      "Ġcolour": 2368,
      "ĠGo": 2369,
      "Ġpretended": 2370,
      "read": 2371,
      "Ġcalm": 2372,
      "Ġrob": 2373,
      "Ġtries": 2374,
      "Ġshy": 2375,
      "Ġdrive": 2376,
      "Ġpool": 2377,
      "ife": 2378,
      "Ġlarge": 2379,
      "Ġmachine": 2380,
      "Ġstret": 2381,
      "Ġtool": 2382,
      "Ġwaiting": 2383,
      "Ġforgive": 2384,
      "Ġhiding": 2385,
      "Ġspread": 2386,
      "Ġspray": 2387,
      "ĠEverywhere": 2388,
      "Ġfinish": 2389,
      "Ġash": 2390,
      "lebr": 2391,
      "Ġcoo": 2392,
      "ato": 2393,
      "Ġchocol": 2394,
      "Ġpush": 2395,
      "Ġvillage": 2396,
      "Ġcelebr": 2397,
      "Ġpour": 2398,
      "Ġsel": 2399,
      "Ġstra": 2400,
      "Ġtreats": 2401,
      "Ġtomorrow": 2402,
      "Ġant": 2403,
      "Ġple": 2404,
      "ĠHow": 2405,
      "Ġfixed": 2406,
      "Ġfighting": 2407,
      "ĠJenny": 2408,
      "Ġsol": 2409,
      "Ġcloth": 2410,
      "Ġhum": 2411,
      "Ġteeth": 2412,
      "Ġchased": 2413,
      "Ġrude": 2414,
      "Ġkitten": 2415,
      "ĠAl": 2416,
      "Ġtidy": 2417,
      "Ġrobot": 2418,
      "old": 2419,
      "urse": 2420,
      "Ġbanan": 2421,
      "Ġforward": 2422,
      "oph": 2423,
      "Ġrep": 2424,
      "Ġcann": 2425,
      "Ġemp": 2426,
      "Ġembarrassed": 2427,
      "Ġknee": 2428,
      "ĠCh": 2429,
      "Ġsongs": 2430,
      "Ġshirt": 2431,
      "Ġbarked": 2432,
      "Ġempty": 2433,
      "Ġrocket": 2434,
      "ator": 2435,
      "ighed": 2436,
      "Ġspe": 2437,
      "Ġfold": 2438,
      "Ġcarrots": 2439,
      "Ġpuddle": 2440,
      "inted": 2441,
      "aul": 2442,
      "Ġpeaceful": 2443,
      "ĠJust": 2444,
      "Ġbugs": 2445,
      "Ġwhistle": 2446,
      "Ġstep": 2447,
      "Ġleaf": 2448,
      "Ġtightly": 2449,
      "Ġcannot": 2450,
      "Ġtaste": 2451,
      "Ġwore": 2452,
      "Ġgen": 2453,
      "ungle": 2454,
      "Ġnet": 2455,
      "Ġstring": 2456,
      "Ġselfish": 2457,
      "getable": 2458,
      "Ġstir": 2459,
      "ult": 2460,
      "Ġgrew": 2461,
      "Ġcreative": 2462,
      "Ġjungle": 2463,
      "Ġvegetable": 2464,
      "Ġmeadow": 2465,
      "Ġsave": 2466,
      "iger": 2467,
      "Ġstone": 2468,
      "Ġchocolate": 2469,
      "ĠSometimes": 2470,
      "ĠJake": 2471,
      "box": 2472,
      "arm": 2473,
      "Ġtrust": 2474,
      "Ġwip": 2475,
      "My": 2476,
      "Ġcrab": 2477,
      "Ġplate": 2478,
      "Ġsparkly": 2479,
      "den": 2480,
      "Ġdisappo": 2481,
      "Ġtea": 2482,
      "Ġdeter": 2483,
      "umpy": 2484,
      "dge": 2485,
      "Ġdeterm": 2486,
      "ground": 2487,
      "ĠLisa": 2488,
      "Ġspicy": 2489,
      "Ġknocked": 2490,
      "Ġ'": 2491,
      "Ġsheep": 2492,
      "Now": 2493,
      "Ġneckl": 2494,
      "ird": 2495,
      "Please": 2496,
      "Ġsour": 2497,
      "ĠOn": 2498,
      "Ġmeant": 2499,
      "Ġshelf": 2500,
      "most": 2501,
      "Ġmaybe": 2502,
      "Dad": 2503,
      "Ġwash": 2504,
      "Ġlem": 2505,
      "Ġjumping": 2506,
      "ned": 2507,
      "Ġmoon": 2508,
      "Ġlegs": 2509,
      "elly": 2510,
      "Ġhidden": 2511,
      "Ġhours": 2512,
      "Ġwhis": 2513,
      "Ġalmost": 2514,
      "airs": 2515,
      "Ġlanded": 2516,
      "Ġdecor": 2517,
      "ustr": 2518,
      "Ġhonest": 2519,
      "ying": 2520,
      "ĠMum": 2521,
      "Ġknowing": 2522,
      "Ġmissed": 2523,
      "Ġdisappointed": 2524,
      "To": 2525,
      "Ġstood": 2526,
      "Ġav": 2527,
      "'d": 2528,
      "aking": 2529,
      "Ġpri": 2530,
      "ano": 2531,
      "Ġline": 2532,
      "Ġgun": 2533,
      "dle": 2534,
      "Ġnut": 2535,
      "Ġfear": 2536,
      "Ġpin": 2537,
      "Ġbreath": 2538,
      "ĠPlease": 2539,
      "ĠSome": 2540,
      "Ġsharing": 2541,
      "Ġcarried": 2542,
      "Ġpizz": 2543,
      "kin": 2544,
      "ĠEven": 2545,
      "Ġscre": 2546,
      "Mama": 2547,
      "Ġhears": 2548,
      "Ġprince": 2549,
      "Ġgener": 2550,
      "ĠLe": 2551,
      "Ġsnacks": 2552,
      "Ġgroup": 2553,
      "ĠTV": 2554,
      "Ġgray": 2555,
      "Ġtells": 2556,
      "ian": 2557,
      "Ġsplash": 2558,
      "Ġcro": 2559,
      "Ġfrustr": 2560,
      "Ġshore": 2561,
      "erp": 2562,
      "Ġreturned": 2563,
      "Ġscar": 2564,
      "Ġpay": 2565,
      "erry": 2566,
      "Ġunderstood": 2567,
      "Ġthankful": 2568,
      "Ġmysterious": 2569,
      "ĠTheir": 2570,
      "Ġfancy": 2571,
      "gly": 2572,
      "Ġgold": 2573,
      "Ġstanding": 2574,
      "Ġbal": 2575,
      "Ġplants": 2576,
      "ony": 2577,
      "Ġmessy": 2578,
      "Ġwhisp": 2579,
      "Ġsticks": 2580,
      "Ġnecklace": 2581,
      "Be": 2582,
      "Ġugly": 2583,
      "ĠTeddy": 2584,
      "obby": 2585,
      "Ġsuccess": 2586,
      "ĠTogether": 2587,
      "orry": 2588,
      "Ġseed": 2589,
      "Ġsandwich": 2590,
      "Ġsleepy": 2591,
      "lower": 2592,
      "vous": 2593,
      "Ġfrustrated": 2594,
      "Ġjew": 2595,
      "Ġbedroom": 2596,
      "Ġyelled": 2597,
      "Ġvan": 2598,
      "era": 2599,
      "Ġtest": 2600,
      "Ġdrew": 2601,
      "Ġpizza": 2602,
      "Ġtaught": 2603,
      "Ġgathered": 2604,
      "Ġtwirl": 2605,
      "Ġpuzzle": 2606,
      "Ġblow": 2607,
      "Ġcirc": 2608,
      "ital": 2609,
      "Ġgas": 2610,
      "Ġspoil": 2611,
      "Ġwolf": 2612,
      "usie": 2613,
      "Ġpowerful": 2614,
      "ĠAnn": 2615,
      "Ġburn": 2616,
      "ork": 2617,
      "Ġfig": 2618,
      "Ġdetermined": 2619,
      "Ġmot": 2620,
      "ser": 2621,
      "Ġsna": 2622,
      "Ġhosp": 2623,
      "itter": 2624,
      "Ġpolice": 2625,
      "sist": 2626,
      "Ġwaves": 2627,
      "Ġhospital": 2628,
      "hin": 2629,
      "Ġcomfortable": 2630,
      "Ġpillow": 2631,
      "pack": 2632,
      "Ġmummy": 2633,
      "Ġexcite": 2634,
      "Ġeasy": 2635,
      "Ġner": 2636,
      "llie": 2637,
      "There": 2638,
      "Ġashamed": 2639,
      "Ġgenerous": 2640,
      "ual": 2641,
      "Sarah": 2642,
      "ensive": 2643,
      "Ġhur": 2644,
      "Ġrad": 2645,
      "ĠWhy": 2646,
      "iff": 2647,
      "Ġclass": 2648,
      "Ġfil": 2649,
      "Ġdeer": 2650,
      "Ġpassed": 2651,
      "Ġexpensive": 2652,
      "ĠZ": 2653,
      "Jane": 2654,
      "Ġpoor": 2655,
      "ĠPeter": 2656,
      "Ġhel": 2657,
      "Ġnervous": 2658,
      "Ġthese": 2659,
      "osaur": 2660,
      "Ġcaterp": 2661,
      "Ġcaterpill": 2662,
      "Ġminutes": 2663,
      "Ġdancing": 2664,
      "Ġtick": 2665,
      "Ġoften": 2666,
      "izzy": 2667,
      "Ġlit": 2668,
      "ĠJohnny": 2669,
      "Stop": 2670,
      "Ġexcitement": 2671,
      "Ġesc": 2672,
      "light": 2673,
      "Ġgate": 2674,
      "Ġtaken": 2675,
      "Ġreg": 2676,
      "uce": 2677,
      "Ġcries": 2678,
      "Ġbridge": 2679,
      "ĠDon": 2680,
      "work": 2681,
      "Ġspend": 2682,
      "Ġexam": 2683,
      "Ġpleased": 2684,
      "mb": 2685,
      "Ġseek": 2686,
      "iddle": 2687,
      "Ġknight": 2688,
      "Ġnods": 2689,
      "oop": 2690,
      "Ġpacked": 2691,
      "Ġship": 2692,
      "Ġpir": 2693,
      "iness": 2694,
      "Ġfeed": 2695,
      "Ġpolite": 2696,
      "arl": 2697,
      "Ġsold": 2698,
      "Ġdinosaur": 2699,
      "Ġcri": 2700,
      "Ġbone": 2701,
      "Ġscr": 2702,
      "Ġsighed": 2703,
      "illed": 2704,
      "Ġvase": 2705,
      "ote": 2706,
      "Ġbored": 2707,
      "ĠBe": 2708,
      "af": 2709,
      "ina": 2710,
      "Ġsaved": 2711,
      "Ġnumber": 2712,
      "Ġflag": 2713,
      "ĠBr": 2714,
      "Ġvegetables": 2715,
      "ete": 2716,
      "Ġrelax": 2717,
      "Ġtent": 2718,
      "Ġleg": 2719,
      "Ġanswered": 2720,
      "Ġchest": 2721,
      "Ġglass": 2722,
      "Ġtrue": 2723,
      "Ġcaterpillar": 2724,
      "Ġwander": 2725,
      "Ġweak": 2726,
      "Ġflut": 2727,
      "Ġworking": 2728,
      "ecially": 2729,
      "Where": 2730,
      "Ġjelly": 2731,
      "Ġcloset": 2732,
      "issors": 2733,
      "Ġfinger": 2734,
      "Ġhopping": 2735,
      "Ġcontent": 2736,
      "Ġsmelly": 2737,
      "Ġboring": 2738,
      "Ġstuff": 2739,
      "Ġclown": 2740,
      "Ġgrumpy": 2741,
      "Ġchew": 2742,
      "Ġscissors": 2743,
      "Ġasking": 2744,
      "Ġgar": 2745,
      "selves": 2746,
      "oof": 2747,
      "Ġmiddle": 2748,
      "Ġhang": 2749,
      "ushed": 2750,
      "pecially": 2751,
      "Ġscarf": 2752,
      "Ġmatch": 2753,
      "Ġespecially": 2754,
      "Ġyourself": 2755,
      "body": 2756,
      "Ġcrawl": 2757,
      "Ġteam": 2758,
      "Ġdrum": 2759,
      "Ġgiggled": 2760,
      "Ġplayground": 2761,
      "Ġwagged": 2762,
      "Ġwis": 2763,
      "Ġmedic": 2764,
      "Ġsight": 2765,
      "ets": 2766,
      "Ġlazy": 2767,
      "que": 2768,
      "Ġkissed": 2769,
      "Ġlemon": 2770,
      "Jimmy": 2771,
      "Ġcand": 2772,
      "Ġdistance": 2773,
      "Ġtears": 2774,
      "ggs": 2775,
      "Ġmic": 2776,
      "Ġsailed": 2777,
      "Ġeggs": 2778,
      "Ġdrawing": 2779,
      "ates": 2780,
      "ĠBl": 2781,
      "Ġdest": 2782,
      "Ġmov": 2783,
      "Ġshoot": 2784,
      "Ġmedicine": 2785,
      "Ġlead": 2786,
      "Ġpray": 2787,
      "ĠEnd": 2788,
      "Ġmistake": 2789,
      "Ġmir": 2790,
      "Ġbecome": 2791,
      "Ġlying": 2792,
      "ating": 2793,
      "ĠRex": 2794,
      "Ġfis": 2795,
      "Ġballs": 2796,
      "Ġsplashed": 2797,
      "Sorry": 2798,
      "ĠOK": 2799,
      "Ġtie": 2800,
      "Ġlock": 2801,
      "aged": 2802,
      "alous": 2803,
      "ella": 2804,
      "Ġdrop": 2805,
      "Ġadd": 2806,
      "Ġstones": 2807,
      "Ġones": 2808,
      "Ġquestions": 2809,
      "Ġext": 2810,
      "Ġjealous": 2811,
      "Ġclap": 2812,
      "Ġeld": 2813,
      "Ġok": 2814,
      "Ġwalks": 2815,
      "ĠLeo": 2816,
      "Ġrid": 2817,
      "Ġbathroom": 2818,
      "ror": 2819,
      "Ġgets": 2820,
      "Ġcrown": 2821,
      "Ġwheel": 2822,
      "Ġboss": 2823,
      "Ġfruits": 2824,
      "Ġfluffy": 2825,
      "Ġfeathers": 2826,
      "Ġskipped": 2827,
      "Ġglow": 2828,
      "Ġcrack": 2829,
      "Ġdisappeared": 2830,
      "Are": 2831,
      "Ġmap": 2832,
      "Ġcross": 2833,
      "Ġchange": 2834,
      "Ġweek": 2835,
      "Ġruined": 2836,
      "Jill": 2837,
      "Ġmoving": 2838,
      "Ġqueen": 2839,
      "Ġcalling": 2840,
      "Ġdiscovered": 2841,
      "Ġextra": 2842,
      "Ġcage": 2843,
      "imp": 2844,
      "Ġwrote": 2845,
      "Ġbake": 2846,
      "Ġfake": 2847,
      "Ġjuicy": 2848,
      "Ġcap": 2849,
      "Ġthick": 2850,
      "Ġbody": 2851,
      "ĠAt": 2852,
      "Their": 2853,
      "Ġgarage": 2854,
      "Ġfather": 2855,
      "Ġeye": 2856,
      "Sally": 2857,
      "ym": 2858,
      "Ġincred": 2859,
      "ination": 2860,
      "Ġunus": 2861,
      "Ġjoke": 2862,
      "ots": 2863,
      "Ġind": 2864,
      "Ġsoap": 2865,
      "Ġlose": 2866,
      "Ġsweetie": 2867,
      "Ġsell": 2868,
      "Ġbrush": 2869,
      "Ġcolourful": 2870,
      "Ġunusual": 2871,
      "cept": 2872,
      "enny": 2873,
      "Ġroar": 2874,
      "Ġdogs": 2875,
      "elp": 2876,
      "Ġglue": 2877,
      "uggest": 2878,
      "Ġmeasure": 2879,
      "Billy": 2880,
      "Ġsuggest": 2881,
      "Ġcover": 2882,
      "Ġcovered": 2883,
      "Who": 2884,
      "ha": 2885,
      "Ġdish": 2886,
      "keep": 2887,
      "Ġord": 2888,
      "Ġrealised": 2889,
      "Ġfamous": 2890,
      "yal": 2891,
      "asing": 2892,
      "Ġnoisy": 2893,
      "port": 2894,
      "Ġboard": 2895,
      "Ġboys": 2896,
      "Ġlicked": 2897,
      "ĠIf": 2898,
      "Ġdrank": 2899,
      "Ġbranches": 2900,
      "Ġpicks": 2901,
      "Ġadventur": 2902,
      "Ġsug": 2903,
      "umbled": 2904,
      "Ġtag": 2905,
      "Ġcost": 2906,
      "Ġelderly": 2907,
      "Ġmirror": 2908,
      "Ġonce": 2909,
      "Ġeager": 2910,
      "Ġclear": 2911,
      "Me": 2912,
      "Ġhappening": 2913,
      "Sp": 2914,
      "Ġcheck": 2915,
      "Ġincredible": 2916,
      "Ġdig": 2917,
      "ured": 2918,
      "Ġcleaned": 2919,
      "Ġmighty": 2920,
      "Ġtiger": 2921,
      "Ġadventurous": 2922,
      "Ġsugar": 2923,
      "Ġtape": 2924,
      "ately": 2925,
      "Ġtowel": 2926,
      "Ġbanana": 2927,
      "Ġed": 2928,
      "Ġcraw": 2929,
      "Ġmotor": 2930,
      "Ġsil": 2931,
      "cil": 2932,
      "Ġbubbles": 2933,
      "Ġpencil": 2934,
      "Ġfigure": 2935,
      "Ġcrawled": 2936,
      "illi": 2937,
      "Ġfine": 2938,
      "Ġborrow": 2939,
      "Ġhorn": 2940,
      "Ġknife": 2941,
      "Help": 2942,
      "hip": 2943,
      "Ġoffered": 2944,
      "Ġstraw": 2945,
      "fast": 2946,
      "Ġtwist": 2947,
      "ĠBlue": 2948,
      "Ġang": 2949,
      "Ġloyal": 2950,
      "Ġdecide": 2951,
      "Ġyours": 2952,
      "Ġbottom": 2953,
      "ti": 2954,
      "?\".": 2955,
      "ĠSusie": 2956,
      "ache": 2957,
      "Ġbreakfast": 2958,
      "ique": 2959,
      "ĠKitty": 2960,
      "Ġaw": 2961,
      "Ġshows": 2962,
      "Ġword": 2963,
      "ory": 2964,
      "Ġfavour": 2965,
      "Ġlouder": 2966,
      "keeper": 2967,
      "ĠLittle": 2968,
      "land": 2969,
      "Ġunique": 2970,
      "Ġorganized": 2971,
      "Ġtoug": 2972,
      "Ġrare": 2973,
      "Ġmanaged": 2974,
      "Ġenjoying": 2975,
      "Ġnod": 2976,
      "Ġbloom": 2977,
      "fic": 2978,
      "Ġwand": 2979,
      "Ġwhale": 2980,
      "Ġmod": 2981,
      "imed": 2982,
      "Ġegg": 2983,
      "Ġfavourite": 2984,
      "Ġboxes": 2985,
      "uggled": 2986,
      "Ġagainst": 2987,
      "rag": 2988,
      "lies": 2989,
      "Ġgoat": 2990,
      "Ġkindness": 2991,
      "Ġimpressed": 2992,
      "Ġadded": 2993,
      "Ġpump": 2994,
      "Ġfridge": 2995,
      "ipp": 2996,
      "Ġlamp": 2997,
      "Ġdizzy": 2998,
      "Ġdiffic": 2999,
      "Ġwrapped": 3000,
      "Ġsword": 3001,
      "Ġfright": 3002,
      "Ġspun": 3003,
      "Ġgiving": 3004,
      "Ġfool": 3005,
      "Ġwagon": 3006,
      "Ġpee": 3007,
      "Ġsquee": 3008,
      "Ġguess": 3009,
      "olog": 3010,
      "Ġcher": 3011,
      "Ġshake": 3012,
      "ĠMark": 3013,
      "ĠBrown": 3014,
      "Ġarg": 3015,
      "Ġcoins": 3016,
      "Ġdifficult": 3017,
      "Ġham": 3018,
      "Ġhappiness": 3019,
      "Ġsafely": 3020,
      "Ġhero": 3021,
      "Ġbarn": 3022,
      "Ġloudly": 3023,
      "Ġbelonged": 3024,
      "Ġtough": 3025,
      "Ġapolog": 3026,
      "emo": 3027,
      "ilt": 3028,
      "Al": 3029,
      "anged": 3030,
      "Ġgrace": 3031,
      "Ġchicken": 3032,
      "Ġballoons": 3033,
      "ery": 3034,
      "Ġfrown": 3035,
      "ready": 3036,
      "arry": 3037,
      "Ġnorm": 3038,
      "Mummy": 3039,
      "zed": 3040,
      "Gra": 3041,
      "Ġhunt": 3042,
      "Ġjewel": 3043,
      "Amy": 3044,
      "Ġbald": 3045,
      "Ġtunn": 3046,
      "ĠNo": 3047,
      "Ġgrown": 3048,
      "Ġlearning": 3049,
      "Ġneeds": 3050,
      "Ġrich": 3051,
      "Ġaccept": 3052,
      "Ġfat": 3053,
      "Ġmelt": 3054,
      "Ġshark": 3055,
      "Ġalready": 3056,
      "Ġcircles": 3057,
      "edient": 3058,
      "Ġharm": 3059,
      "Ġweird": 3060,
      "rage": 3061,
      "Ġdepend": 3062,
      "ages": 3063,
      "Ġrecord": 3064,
      "Ġcheerful": 3065,
      "Ġfoolish": 3066,
      "Ġcam": 3067,
      "Ġbalance": 3068,
      "Sue": 3069,
      "head": 3070,
      "Ġpointing": 3071,
      "Ġchase": 3072,
      "Ġflash": 3073,
      "Ġslipped": 3074,
      "Ġmixed": 3075,
      "Ġhurts": 3076,
      "Ġbrothers": 3077,
      "Ġbuttons": 3078,
      "Ġpainting": 3079,
      "Ġsmoke": 3080,
      "ipper": 3081,
      "Ġsearch": 3082,
      "Ġstrawber": 3083,
      "Ġnormal": 3084,
      "Well": 3085,
      "Ġmarket": 3086,
      "How": 3087,
      "Ġisland": 3088,
      "Ġlog": 3089,
      "Ġrough": 3090,
      "Joe": 3091,
      "Ġears": 3092,
      "Ġhose": 3093,
      "omed": 3094,
      "Ġjack": 3095,
      "ject": 3096,
      "Ġstream": 3097,
      "ĠPete": 3098,
      "arth": 3099,
      "Ġtrucks": 3100,
      "Ġmovie": 3101,
      "bborn": 3102,
      "Ġturt": 3103,
      "Ġcity": 3104,
      "Ġchoose": 3105,
      "Ġkinds": 3106,
      "Ġfour": 3107,
      "alk": 3108,
      "Ġmeans": 3109,
      "Ġdreams": 3110,
      "Ġstubborn": 3111,
      "Ġter": 3112,
      "ature": 3113,
      "Ġcompet": 3114,
      "Ġobedient": 3115,
      "Ġnosy": 3116,
      "ĠBobby": 3117,
      "Ġswan": 3118,
      "Ġlifted": 3119,
      "Ġfrightened": 3120,
      "Ġweal": 3121,
      "Ġref": 3122,
      "Ġbrilli": 3123,
      "ĠMrs": 3124,
      "Ġgrap": 3125,
      "oot": 3126,
      "Ġmoms": 3127,
      "Ġclay": 3128,
      "Ġicy": 3129,
      "Ġsaying": 3130,
      "iable": 3131,
      "Ġdreamed": 3132,
      "Ġbrilliant": 3133,
      "Ġmagn": 3134,
      "Ġedge": 3135,
      "gy": 3136,
      "und": 3137,
      "Ġtwig": 3138,
      "Ġusing": 3139,
      "Ġscare": 3140,
      "Ġskin": 3141,
      "Ġproudly": 3142,
      "Ġunl": 3143,
      "Ġbitter": 3144,
      "Ġoffice": 3145,
      "Ġsounded": 3146,
      "Ġreliable": 3147,
      "Ġwalls": 3148,
      "Ġvalu": 3149,
      "wards": 3150,
      "Ġlibr": 3151,
      "Ġuseful": 3152,
      "Ġescape": 3153,
      "Ġpil": 3154,
      "atter": 3155,
      "Ġabove": 3156,
      "Ġstronger": 3157,
      "Ġber": 3158,
      "Ġcircle": 3159,
      "Ġdolp": 3160,
      "Ġwrap": 3161,
      "cient": 3162,
      "Ġguit": 3163,
      "Ġrat": 3164,
      "Ġthoughtful": 3165,
      "Ġtrack": 3166,
      "Ġberries": 3167,
      "laimed": 3168,
      "Ġjoined": 3169,
      "Ġtools": 3170,
      "Ġcompetit": 3171,
      "Ġtoast": 3172,
      "Ġlean": 3173,
      "Ġfier": 3174,
      "ĠDucky": 3175,
      "ĠWhenever": 3176,
      "Ġinvited": 3177,
      "Ġexclaimed": 3178,
      "Ġhats": 3179,
      "Ġfalls": 3180,
      "Ġdependable": 3181,
      "Ġfre": 3182,
      "ĠToday": 3183,
      "iv": 3184,
      "Ġsuit": 3185,
      "Ġtank": 3186,
      "Ġcrayon": 3187,
      "Ġjam": 3188,
      "Ġgrandpa": 3189,
      "Ġtrunk": 3190,
      "Ġspoiled": 3191,
      "Ġbossy": 3192,
      "Ġexplored": 3193,
      "Ġindepend": 3194,
      "Ġgem": 3195,
      "Ġroof": 3196,
      "Ġcleaning": 3197,
      "bin": 3198,
      "Ġancient": 3199,
      "Ġtummy": 3200,
      "Ġenorm": 3201,
      "Ġbushes": 3202,
      "Ġshells": 3203,
      "Ġreminded": 3204,
      "Ġfierce": 3205,
      "Ġharder": 3206,
      "Ġenormous": 3207,
      "oppy": 3208,
      "ye": 3209,
      "Ġtimes": 3210,
      "Ġfrag": 3211,
      "Ġthu": 3212,
      "Ġswe": 3213,
      "ĠFred": 3214,
      "Ġchose": 3215,
      "Spot": 3216,
      "Ġyog": 3217,
      "Ġstumbled": 3218,
      "Ġperform": 3219,
      "Ġlaughs": 3220,
      "Ġshape": 3221,
      "Ġcabin": 3222,
      "Ġdesign": 3223,
      "ention": 3224,
      "ÅĵLet": 3225,
      "ext": 3226,
      "Ġfountain": 3227,
      "ola": 3228,
      "ĠBu": 3229,
      "Ġyarn": 3230,
      "Ġterri": 3231,
      "Ġsuggested": 3232,
      "Ġwake": 3233,
      "amond": 3234,
      "Ġspace": 3235,
      "Here": 3236,
      "ress": 3237,
      "Ġhelps": 3238,
      "Ġmem": 3239,
      "Ġturtle": 3240,
      "Ġvaluable": 3241,
      "Ġguitar": 3242,
      "Ġmarble": 3243,
      "Ġdelighted": 3244,
      "orge": 3245,
      "Ġsmaller": 3246,
      "irp": 3247,
      "ipe": 3248,
      "Ġbeet": 3249,
      "Ġnotice": 3250,
      "Ġdiamond": 3251,
      "ĠU": 3252,
      "ĠMy": 3253,
      "Ġrode": 3254,
      "Ġlaw": 3255,
      "Ġjog": 3256,
      "Ġraced": 3257,
      "Ġcudd": 3258,
      "ĠNemo": 3259,
      "ĠElla": 3260,
      "ouses": 3261,
      "Ġindependent": 3262,
      "Ġparrot": 3263,
      "Ġshone": 3264,
      "Ġcounted": 3265,
      "Ġseem": 3266,
      "Ġexcitedly": 3267,
      "Ġshowing": 3268,
      "Ġfragile": 3269,
      "Ġbuilt": 3270,
      "Ġlow": 3271,
      "anut": 3272,
      "Ġknows": 3273,
      "Ġcamera": 3274,
      "Ġson": 3275,
      "Ġcostum": 3276,
      "uring": 3277,
      "Ġbrightly": 3278,
      "Ġwealthy": 3279,
      "dom": 3280,
      "kn": 3281,
      "Ġcere": 3282,
      "Ġsuccessful": 3283,
      "inary": 3284,
      "Ġbounce": 3285,
      "Ġfingers": 3286,
      "Ġadmired": 3287,
      "Ġangel": 3288,
      "Ġcop": 3289,
      "anger": 3290,
      "Ġways": 3291,
      "ĠRose": 3292,
      "Ġstudy": 3293,
      "Em": 3294,
      "Ġchanged": 3295,
      "Ġbags": 3296,
      "Ġbirdie": 3297,
      "Ġbatter": 3298,
      "Ġstamp": 3299,
      "Ġsolve": 3300,
      "Ġthirst": 3301,
      "Ġbull": 3302,
      "Ġhouses": 3303,
      "gest": 3304,
      "Ġstri": 3305,
      "Ġarrow": 3306,
      "Ġmole": 3307,
      "Ġpainted": 3308,
      "umbers": 3309,
      "Ġtunnel": 3310,
      "inal": 3311,
      "Ġrushed": 3312,
      "iew": 3313,
      "Ġpicking": 3314,
      "Ġtele": 3315,
      "Ġlights": 3316,
      "Ġprize": 3317,
      "Ġthemselves": 3318,
      "Ġbiggest": 3319,
      "Ġdove": 3320,
      "Ġkicked": 3321,
      "Ġpractice": 3322,
      "Ġmarch": 3323,
      "eorge": 3324,
      "com": 3325,
      "iginal": 3326,
      "Ġfresh": 3327,
      "Ġtooth": 3328,
      "Ġgoose": 3329,
      "Ġview": 3330,
      "Ġpost": 3331,
      "Ġsauce": 3332,
      "Ġlab": 3333,
      "Ġenvel": 3334,
      "cod": 3335,
      "Ġcomput": 3336,
      "known": 3337,
      "ado": 3338,
      "Ġsunf": 3339,
      "Ġsearching": 3340,
      "Ġhay": 3341,
      "Ġcone": 3342,
      "Ġresc": 3343,
      "Ġpoured": 3344,
      "Ġpumpkin": 3345,
      "Ġspinning": 3346,
      "corn": 3347,
      "Ġyet": 3348,
      "Ġgrand": 3349,
      "ĠFin": 3350,
      "Ġsalad": 3351,
      "Ġoriginal": 3352,
      "Ġcheap": 3353,
      "Ġstove": 3354,
      "Ġcereal": 3355,
      "Ġenc": 3356,
      "upid": 3357,
      "Ġclum": 3358,
      "Ġpeanut": 3359,
      "Ġdreaming": 3360,
      "anny": 3361,
      "Ġshadow": 3362,
      "Ġscrat": 3363,
      "Ġbeetle": 3364,
      "Ġbeak": 3365,
      "Ġdull": 3366,
      "uth": 3367,
      "Ġforth": 3368,
      "ĠMar": 3369,
      "Ġunknown": 3370,
      "Ġmetal": 3371,
      "ĠAlice": 3372,
      "Ġthirsty": 3373,
      "âĢ": 3374,
      "Ġcompass": 3375,
      "Ġserious": 3376,
      "Ġcrocod": 3377,
      "Ġnurse": 3378,
      "Ġpopcorn": 3379,
      "Ġsteal": 3380,
      "Ġdough": 3381,
      "Ġreward": 3382,
      "illie": 3383,
      "Ġpant": 3384,
      "Ġplayful": 3385,
      "Ġhandle": 3386,
      "Ġstupid": 3387,
      "âĤ¬âĢ": 3388,
      "ĠDave": 3389,
      "Ġclock": 3390,
      "Ġending": 3391,
      "Ġpup": 3392,
      "Ġpersist": 3393,
      "vice": 3394,
      "tern": 3395,
      "Ġwiped": 3396,
      "Ġprep": 3397,
      "ilty": 3398,
      "Ġnumbers": 3399,
      "Ġguilty": 3400,
      "Ġfinding": 3401,
      "Ġdelicate": 3402,
      "Ġbean": 3403,
      "Ġdesk": 3404,
      "Ġwire": 3405,
      "ither": 3406,
      "Ġumb": 3407,
      "Ġstairs": 3408,
      "Ġlocked": 3409,
      "Ġflute": 3410,
      "Ġflashlight": 3411,
      "Ġclumsy": 3412,
      "Ġumbre": 3413,
      "Ġgraceful": 3414,
      "Ġcareless": 3415,
      "Ġtelling": 3416,
      "apped": 3417,
      "Ġhoop": 3418,
      "Ġsniff": 3419,
      "Ġwhispered": 3420,
      "Ġfork": 3421,
      "Ġnicely": 3422,
      "Ġhairy": 3423,
      "Ġtrap": 3424,
      "Ġcarrying": 3425,
      "Ġpeeked": 3426,
      "Ġallowed": 3427,
      "Ġdead": 3428,
      "ience": 3429,
      "Ġmoder": 3430,
      "Ġmis": 3431,
      "ĠMummy": 3432,
      "Ġleaving": 3433,
      "Ġchar": 3434,
      "Ġboats": 3435,
      "Ġthunder": 3436,
      "Ġow": 3437,
      "Ġpotato": 3438,
      "Ġing": 3439,
      "Ġmel": 3440,
      "Ġthose": 3441,
      "Ġshel": 3442,
      "time": 3443,
      "Ġsnee": 3444,
      "Ġterrible": 3445,
      "Ġsudden": 3446,
      "Ġnote": 3447,
      "!\".": 3448,
      "Ġpasta": 3449,
      "Ġimagined": 3450,
      "Ġcompassion": 3451,
      "Ġbump": 3452,
      "ray": 3453,
      "redient": 3454,
      "Ġsparkled": 3455,
      "Ġavo": 3456,
      "Ġscreen": 3457,
      "Ġregular": 3458,
      "Ġingredient": 3459,
      "Ġwashed": 3460,
      "ĠBella": 3461,
      "Ġtomato": 3462,
      "While": 3463,
      "Ġstranger": 3464,
      "Ġwarned": 3465,
      "Ġenvelope": 3466,
      "Ġhalf": 3467,
      "Ġjolly": 3468,
      "ement": 3469,
      "Ġpattern": 3470,
      "Ġpopular": 3471,
      "Ġjacket": 3472,
      "Ġmodern": 3473,
      "ines": 3474,
      "Ġprint": 3475,
      "Ġmailbox": 3476,
      "ĠTweety": 3477,
      "Ġpirate": 3478,
      "Ġearth": 3479,
      "Ġcomputer": 3480,
      "Ġpow": 3481,
      "Ġfriendship": 3482,
      "ĠWhile": 3483,
      "oomy": 3484,
      "comfort": 3485,
      "Ġgrowing": 3486,
      "Ġhammer": 3487,
      "Ġstat": 3488,
      "Ġshiver": 3489,
      "Ġsne": 3490,
      "Ġimpress": 3491,
      "Ġliz": 3492,
      "Ġmeal": 3493,
      "Ġdeliver": 3494,
      "Ġacorn": 3495,
      "ĠBobo": 3496,
      "Ġseeds": 3497,
      "ision": 3498,
      "robe": 3499,
      "Ġuncomfort": 3500,
      "Ġaunt": 3501,
      "isk": 3502,
      "ugged": 3503,
      "Ġuncomfortable": 3504,
      "Ġcur": 3505,
      "Ġbees": 3506,
      "ĠEllie": 3507,
      "Ġdoesn": 3508,
      "Ġrubb": 3509,
      "Ġmissing": 3510,
      "tter": 3511,
      "illa": 3512,
      "Ġscatter": 3513,
      "Ġzip": 3514,
      "ations": 3515,
      "Ġrefused": 3516,
      "Ġenv": 3517,
      "Ġdriving": 3518,
      "Ġpige": 3519,
      "Ġtied": 3520,
      "Ġflex": 3521,
      "Ġcrocodile": 3522,
      "Ġspilled": 3523,
      "Ġorder": 3524,
      "Ġguard": 3525,
      "Ġpenny": 3526,
      "Ġrubbed": 3527,
      "Ġstops": 3528,
      "Ġcomplet": 3529,
      "Ġtwirled": 3530,
      "See": 3531,
      "Ġer": 3532,
      "Ġwing": 3533,
      "Ġingredients": 3534,
      "Ġadvice": 3535,
      "Ġattic": 3536,
      "Ġpersistent": 3537,
      "Ġtrump": 3538,
      "ÅĵWhat": 3539,
      "Ġthinking": 3540,
      "Ġwitch": 3541,
      "ellig": 3542,
      "Ġhelm": 3543,
      "ÅĵLetÃ¢": 3544,
      "Ġload": 3545,
      "Ġintellig": 3546,
      "Ġhanded": 3547,
      "Ġtravel": 3548,
      "Ġperm": 3549,
      "Ġsink": 3550,
      "Ġdust": 3551,
      "Ġsorts": 3552,
      "arsh": 3553,
      "Ġumbrella": 3554,
      "het": 3555,
      "ĠYour": 3556,
      "Ġjug": 3557,
      "ÅĵIt": 3558,
      "Ġrub": 3559,
      "Ġbarber": 3560,
      "Ġotter": 3561,
      "Ġanx": 3562,
      "Ġpatch": 3563,
      "Ġearly": 3564,
      "Ġbent": 3565,
      "uddy": 3566,
      "Ġsquash": 3567,
      "Ġsleeping": 3568,
      "Ġquestion": 3569,
      "Ġcreate": 3570,
      "Ġchasing": 3571,
      "Ġsurf": 3572,
      "Ġcooking": 3573,
      "Ġdestro": 3574,
      "Ġtask": 3575,
      "Ġscale": 3576,
      "Ġrose": 3577,
      "aghet": 3578,
      "Ġplaced": 3579,
      "Ġflexible": 3580,
      "aghetti": 3581,
      "awn": 3582,
      "ict": 3583,
      "Ġcelebrate": 3584,
      "Ġshut": 3585,
      "Ġuncle": 3586,
      "fa": 3587,
      "Ġcounting": 3588,
      "Ġanxious": 3589,
      "Ġnature": 3590,
      "Ġbrace": 3591,
      "Ġdiscover": 3592,
      "Ġslides": 3593,
      "Ġgasped": 3594,
      "Ġstage": 3595,
      "Ġspaghetti": 3596,
      "Ġcrazy": 3597,
      "Ġhumble": 3598,
      "Ġharmless": 3599,
      "Ġrug": 3600,
      "Ġscoot": 3601,
      "Ġsunflower": 3602,
      "llip": 3603,
      "Ġeng": 3604,
      "Ġbeauty": 3605,
      "Ġbutterflies": 3606,
      "Ġcreatures": 3607,
      "llipop": 3608,
      "Ġmask": 3609,
      "Ġresist": 3610,
      "ĠAlex": 3611,
      "Ġlibrary": 3612,
      "io": 3613,
      "Ġblueber": 3614,
      "Ġencou": 3615,
      "Ġimpressive": 3616,
      "Ġshocked": 3617,
      "Ġtruth": 3618,
      "Ġsnuggled": 3619,
      "Ġlizard": 3620,
      "Ġtor": 3621,
      "ince": 3622,
      "Ġknock": 3623,
      "Ġsquare": 3624,
      "Ġsett": 3625,
      "Ġordinary": 3626,
      "iches": 3627,
      "ĠcouldnÃ¢": 3628,
      "Ġpale": 3629,
      "Ġshield": 3630,
      "Ġlollipop": 3631,
      "Ġtrumpet": 3632,
      "Ġvol": 3633,
      "cano": 3634,
      "ĠMandy": 3635,
      "Ġrece": 3636,
      "ud": 3637,
      "loo": 3638,
      "Ġcush": 3639,
      "ĠMike": 3640,
      "Ġdisg": 3641,
      "Ġspring": 3642,
      "orant": 3643,
      "Ġspeed": 3644,
      "Ġcricket": 3645,
      "Ġhung": 3646,
      "Ġmill": 3647,
      "Ġgum": 3648,
      "ĠSn": 3649,
      "ric": 3650,
      "Ġtowers": 3651,
      "Ġbrighter": 3652,
      "ĠKim": 3653,
      "ophie": 3654,
      "Ġpants": 3655,
      "used": 3656,
      "host": 3657,
      "Ġdisgust": 3658,
      "Ġimpat": 3659,
      "Ġbadly": 3660,
      "uper": 3661,
      "Ġchance": 3662,
      "Ġattract": 3663,
      "Ġdolphin": 3664,
      "Ġitself": 3665,
      "ĠFr": 3666,
      "Ġreading": 3667,
      "ĠToby": 3668,
      "Ġcrane": 3669,
      "Ġobject": 3670,
      "Ġcharming": 3671,
      "Ġahead": 3672,
      "arian": 3673,
      "Ġpepper": 3674,
      "Ġholds": 3675,
      "Ġenth": 3676,
      "Ġneat": 3677,
      "Ġspoke": 3678,
      "noon": 3679,
      "Ġafternoon": 3680,
      "Ġstickers": 3681,
      "Ġopens": 3682,
      "Ġmath": 3683,
      "Ġghost": 3684,
      "Ġsadly": 3685,
      "ĠLook": 3686,
      "Ġcomb": 3687,
      "htub": 3688,
      "Ġanywhere": 3689,
      "Ġwheels": 3690,
      "Ġphot": 3691,
      "Ġcourage": 3692,
      "Ġstatue": 3693,
      "Ġwindows": 3694,
      "Ġbathtub": 3695,
      "Ġignorant": 3696,
      "Ġstretched": 3697,
      "Ġimpatient": 3698,
      "Ġdug": 3699,
      "Ġstation": 3700,
      "Ġcact": 3701,
      "ebra": 3702,
      "Ġmagnet": 3703,
      "Ġenthus": 3704,
      "Ġintelligent": 3705,
      "Ġtem": 3706,
      "Ġcarp": 3707,
      "Ġdrawer": 3708,
      "Ġsandwiches": 3709,
      "Ġsend": 3710,
      "Ġleop": 3711,
      "Ġmeas": 3712,
      "Ġtrick": 3713,
      "Ġled": 3714,
      "Ġgifted": 3715,
      "coa": 3716,
      "Ġshoe": 3717,
      "Ġcartoon": 3718,
      "Ġfearful": 3719,
      "Ġvolcano": 3720,
      "aid": 3721,
      "Ġpiano": 3722,
      "Ġletters": 3723,
      "Ġmelon": 3724,
      "Ġcocoa": 3725,
      "Ġcupboard": 3726,
      "aurant": 3727,
      "Ġnail": 3728,
      "Ġflour": 3729,
      "Ġzebra": 3730,
      "Ġsplit": 3731,
      "Ġcollar": 3732,
      "cu": 3733,
      "Ġrestaurant": 3734,
      "Ġfurther": 3735,
      "Ġnames": 3736,
      "Ġbase": 3737,
      "aches": 3738,
      "Ġcompassionate": 3739,
      "Ġgloomy": 3740,
      "bled": 3741,
      "Ġpebble": 3742,
      "Ġcompetitive": 3743,
      "Ġcactus": 3744,
      "Ġmay": 3745,
      "stri": 3746,
      "aby": 3747,
      "gu": 3748,
      "iest": 3749,
      "ĠHere": 3750,
      "ices": 3751,
      "Ġimpro": 3752,
      "Ġnuts": 3753,
      "Ġdestroy": 3754,
      "Go": 3755,
      "ĠPat": 3756,
      "Ġnowhere": 3757,
      "Ġjeep": 3758,
      "Ġpracticed": 3759,
      "Ġcamp": 3760,
      "Ġseal": 3761,
      "Ġjet": 3762,
      "ÅĵYes": 3763,
      "Ġrestless": 3764,
      "Ġhurry": 3765,
      "Ġpigeon": 3766,
      "ikes": 3767,
      "Ġshine": 3768,
      "ĠEverything": 3769,
      "Ġfirework": 3770,
      "Ġengine": 3771,
      "Ġtire": 3772,
      "Ġpurse": 3773,
      "Ġgir": 3774,
      "Ġyawn": 3775,
      "Ġener": 3776,
      "ibb": 3777,
      "Ġhipp": 3778,
      "Ġpretending": 3779,
      "Ġadmire": 3780,
      "Mary": 3781,
      "oe": 3782,
      "ĠSm": 3783,
      "Ġsofa": 3784,
      "Ġpackage": 3785,
      "Ġhunter": 3786,
      "Ġshaking": 3787,
      "ĠWh": 3788,
      "Ġtrash": 3789,
      "Ġdisgusting": 3790,
      "ips": 3791,
      "Ġsupport": 3792,
      "Ġjumps": 3793,
      "Ġenvious": 3794,
      "Ow": 3795,
      "Ġpony": 3796,
      "Ġanyway": 3797,
      "Ġdeaf": 3798,
      "aff": 3799,
      "Ġtap": 3800,
      "opus": 3801,
      "ctopus": 3802,
      "ĠJoey": 3803,
      "Ġcooked": 3804,
      "Ġtur": 3805,
      "ĠLola": 3806,
      "Ġraven": 3807,
      "Ġhuman": 3808,
      "ĠEventually": 3809,
      "Ġvalue": 3810,
      "Ġstack": 3811,
      "Ġspell": 3812,
      "Ġcompl": 3813,
      "Yay": 3814,
      "Ġmush": 3815,
      "Ġcandle": 3816,
      "Ġattractive": 3817,
      "Ġcarpet": 3818,
      "gn": 3819,
      "Ġbri": 3820,
      "erable": 3821,
      "ĠGrandpa": 3822,
      "Ġwheat": 3823,
      "Ġoctopus": 3824,
      "Ġswitch": 3825,
      "Ġbandage": 3826,
      "Ġcards": 3827,
      "Ġnobody": 3828,
      "Ġcats": 3829,
      "Ġmiserable": 3830,
      "ccol": 3831,
      "ĠPaul": 3832,
      "ccoli": 3833,
      "ceed": 3834,
      "ief": 3835,
      "Ġunpack": 3836,
      "ophone": 3837,
      "Ġtorn": 3838,
      "Ġsuper": 3839,
      "ĠCl": 3840,
      "Ġbracelet": 3841,
      "Ġleopard": 3842,
      "par": 3843,
      "Ġsepar": 3844,
      "Ġlaser": 3845,
      "Ġsalt": 3846,
      "Ġdecorate": 3847,
      "Ġsweater": 3848,
      "Ġbet": 3849,
      "Ġhelpless": 3850,
      "Ġwaff": 3851,
      "Ġsoar": 3852,
      "Ġreco": 3853,
      "Ġcryst": 3854,
      "Ġdistant": 3855,
      "cream": 3856,
      "Ġostri": 3857,
      "Ġrice": 3858,
      "ĠPe": 3859,
      "hood": 3860,
      "shed": 3861,
      "Ġdess": 3862,
      "Ġrules": 3863,
      "Alice": 3864,
      "ffe": 3865,
      "Ġalert": 3866,
      "Ġhedge": 3867,
      "aroo": 3868,
      "angaroo": 3869,
      "Ġfilthy": 3870,
      "Ġturkey": 3871,
      "Ġstarts": 3872,
      "ĠTweetie": 3873,
      "ffee": 3874,
      "year": 3875,
      "Ġax": 3876,
      "Ġol": 3877,
      "Ġgor": 3878,
      "Ġbackpack": 3879,
      "Ġclub": 3880,
      "Ġpengu": 3881,
      "ses": 3882,
      "Benny": 3883,
      "Ġsym": 3884,
      "ummer": 3885,
      "Ġolder": 3886,
      "Ġexplain": 3887,
      "uct": 3888,
      "ÅĵThat": 3889,
      "Ġthread": 3890,
      "Ġcows": 3891,
      "Ġgiggle": 3892,
      "zzy": 3893,
      "ĠAndy": 3894,
      "Ġbroccoli": 3895,
      "iron": 3896,
      "Ġstared": 3897,
      "Ġkangaroo": 3898,
      "Ġpressed": 3899,
      "Ġelev": 3900,
      "Ġfootball": 3901,
      "Ġhippo": 3902,
      "Ġtray": 3903,
      "Ġclapping": 3904,
      "cycle": 3905,
      "Ġparade": 3906,
      "Ġlively": 3907,
      "aked": 3908,
      "ailable": 3909,
      "Ġsucceed": 3910,
      "Ġpaws": 3911,
      "Ġsize": 3912,
      "Ġbicy": 3913,
      "Ġrolling": 3914,
      "Ġsticker": 3915,
      "gging": 3916,
      "Ġgolf": 3917,
      "Ġleash": 3918,
      "Ġchain": 3919,
      "ubby": 3920,
      "Ġbeep": 3921,
      "Ġgoal": 3922,
      "bol": 3923,
      "Ġmushroom": 3924,
      "Re": 3925,
      "Ġcurt": 3926,
      "orable": 3927,
      "Ġhappier": 3928,
      "Ġelevator": 3929,
      "cut": 3930,
      "Ġaxe": 3931,
      "Ġsymbol": 3932,
      "Ġcurtain": 3933,
      "Ġhook": 3934,
      "Ġhive": 3935,
      "Ġpun": 3936,
      "urb": 3937,
      "Ġavailable": 3938,
      "Ġhelmet": 3939,
      "Ġvine": 3940,
      "apa": 3941,
      "Ġdisturb": 3942,
      "Ġmicr": 3943,
      "Ġsilver": 3944,
      "Ġmug": 3945,
      "Ġquite": 3946,
      "Ġdessert": 3947,
      "If": 3948,
      "Ġoy": 3949,
      "Ġjokes": 3950,
      "Ġbounced": 3951,
      "aulif": 3952,
      "Ġharsh": 3953,
      "Ġtrop": 3954,
      "ĠPolly": 3955,
      "Ġrod": 3956,
      "Ġcountry": 3957,
      "Ġscooter": 3958,
      "Ġsoldier": 3959,
      "Ġavoc": 3960,
      "ĠBear": 3961,
      "Ġcoffee": 3962,
      "Ġcolours": 3963,
      "Ġexper": 3964,
      "Everyone": 3965,
      "heart": 3966,
      "inking": 3967,
      "ĠBuddy": 3968,
      "Ġskip": 3969,
      "Ġneedle": 3970,
      "Ġadorable": 3971,
      "Ġmessage": 3972,
      "Ġpushing": 3973,
      "Ġtreasures": 3974,
      "Ġstirred": 3975,
      "ĠBill": 3976,
      "ĠWhere": 3977,
      "Ġpainter": 3978,
      "Ġsecond": 3979,
      "Ġneighbour": 3980,
      "Ġorganize": 3981,
      "Ġroared": 3982,
      "Ġframe": 3983,
      "Ġmicrophone": 3984,
      "Ġcord": 3985,
      "Ġur": 3986,
      "Ġsomewhere": 3987,
      "Ġsteps": 3988,
      "Ġrecogn": 3989,
      "Ġostrich": 3990,
      "Ġtrophy": 3991,
      "Ġfu": 3992,
      "Ġcaulif": 3993,
      "Ġhall": 3994,
      "ĠGive": 3995,
      "Ġriding": 3996,
      "Ġcushion": 3997,
      "ĠSmith": 3998,
      "Ġgorilla": 3999,
      "ef": 4000,
      "ipping": 4001,
      "Ġsent": 4002,
      "Ġbin": 4003,
      "Ġstarting": 4004,
      "ĠGeorge": 4005,
      "Ġbarrel": 4006,
      "Ġrepe": 4007,
      "Ġwishes": 4008,
      "Ġmodest": 4009,
      "ws": 4010,
      "Ġoat": 4011,
      "ĠSh": 4012,
      "Little": 4013,
      "Ġmuff": 4014,
      "Ġchubby": 4015,
      "Ġuniver": 4016,
      "Ġpolish": 4017,
      "ĠGrace": 4018,
      "Ġradio": 4019,
      "ĠAre": 4020,
      "stairs": 4021,
      "Ġshouts": 4022,
      "Ġforgave": 4023,
      "Ġcooler": 4024,
      "Ġpilot": 4025,
      "Ġsle": 4026,
      "elery": 4027,
      "Ġvi": 4028,
      "Ġgiven": 4029,
      "iskers": 4030,
      "night": 4031,
      "ĠdidnÃ¢": 4032,
      "Ġart": 4033,
      "Ġholes": 4034,
      "Ġeras": 4035,
      "Ġluck": 4036,
      "Ġonion": 4037,
      "Ġthief": 4038,
      "Ġspir": 4039,
      "Ġpaid": 4040,
      "Ġvisited": 4041,
      "Ġzoomed": 4042,
      "ĠBrownie": 4043,
      "Ġlear": 4044,
      "Ġlistening": 4045,
      "Ġbehave": 4046,
      "Ġtriang": 4047,
      "Ġcostume": 4048,
      "Ġbicycle": 4049,
      "stic": 4050,
      "Ġscold": 4051,
      "Ġbarking": 4052,
      "Ġstretch": 4053,
      "Ġlearnt": 4054,
      "Ġshort": 4055,
      "Ġpulls": 4056,
      "Ġcrystal": 4057,
      "az": 4058,
      "ube": 4059,
      "aled": 4060,
      "Ġlightning": 4061,
      "Ġobser": 4062,
      "Ġspeak": 4063,
      "ci": 4064,
      "render": 4065,
      "Ġcase": 4066,
      "Ġlip": 4067,
      "Ġended": 4068,
      "ebook": 4069,
      "ooped": 4070,
      "Ġkay": 4071,
      "ĠJerry": 4072,
      "Give": 4073,
      "eer": 4074,
      "Ġnotebook": 4075,
      "Ġbreat": 4076,
      "Ġtroubled": 4077,
      "hino": 4078,
      "Ġten": 4079,
      "Ġpor": 4080,
      "Ġhadn": 4081,
      "Ġsort": 4082,
      "Ġswinging": 4083,
      "Ġmixer": 4084,
      "Ġshopkeeper": 4085,
      "Ġsummer": 4086,
      "astic": 4087,
      "iastic": 4088,
      "Ġhoping": 4089,
      "olin": 4090,
      "Ġshrimp": 4091,
      "Ġshelter": 4092,
      "Ġenthusiastic": 4093,
      "Ġcauliflower": 4094,
      "ĠRed": 4095,
      "Ġfive": 4096,
      "kelet": 4097,
      "Ġprov": 4098,
      "Ġfilm": 4099,
      "Daisy": 4100,
      "Ġpeach": 4101,
      "Ġcomet": 4102,
      "iling": 4103,
      "ĠSandy": 4104,
      "ucked": 4105,
      "Ġdishes": 4106,
      "arlie": 4107,
      "Ġfrowned": 4108,
      "reci": 4109,
      "Ġtripped": 4110,
      "Ġpoint": 4111,
      "Ġrespectful": 4112,
      "Ġenergy": 4113,
      "Bye": 4114,
      "Ġcelery": 4115,
      "Ġpipe": 4116,
      "Ġstrugg": 4117,
      "Ġmonkeys": 4118,
      "Ġquar": 4119,
      "Ġpair": 4120,
      "Ġmarched": 4121,
      "Ġsailor": 4122,
      "Ġrepair": 4123,
      "happy": 4124,
      "Ġtube": 4125,
      "Ġrhino": 4126,
      "Ġreind": 4127,
      "Ġwallet": 4128,
      "Ġspirit": 4129,
      "keleton": 4130,
      "Ġdive": 4131,
      "Ġpad": 4132,
      "Ġgro": 4133,
      "Ġbuzz": 4134,
      "Ġevening": 4135,
      "Ġappreci": 4136,
      "Ġfireman": 4137,
      "Ġairport": 4138,
      "Ġgrapes": 4139,
      "Ġeither": 4140,
      "Ġyach": 4141,
      "Ġclimbing": 4142,
      "Ġants": 4143,
      "Ġfort": 4144,
      "Ġpushes": 4145,
      "Ġrescue": 4146,
      "Ġtrains": 4147,
      "Ġdrawings": 4148,
      "Ġunlock": 4149,
      "Ġeraser": 4150,
      "azz": 4151,
      "Ġtax": 4152,
      "Ġtemp": 4153,
      "Ġped": 4154,
      "agg": 4155,
      "anda": 4156,
      "Ġtricks": 4157,
      "Ġraining": 4158,
      "Ġlions": 4159,
      "âĤ¬âĢľ": 4160,
      "Ġribb": 4161,
      "Ġthanks": 4162,
      "ron": 4163,
      "Ġiron": 4164,
      "enry": 4165,
      "Ġreef": 4166,
      "Ġmeat": 4167,
      "Ġbubble": 4168,
      "Ġmild": 4169,
      "Ġchecked": 4170,
      "Ġsurrender": 4171,
      "Ġloop": 4172,
      "Ġincl": 4173,
      "Ġstuffed": 4174,
      "Ġreindeer": 4175,
      "Ġyacht": 4176,
      "Ġskeleton": 4177,
      "Ġboots": 4178,
      "ĠTr": 4179,
      "Ġfinds": 4180,
      "Ġbears": 4181,
      "Ġbikes": 4182,
      "Ġlid": 4183,
      "anic": 4184,
      "Ġstom": 4185,
      "ĠMillie": 4186,
      "Ġcomplete": 4187,
      "ĠWhiskers": 4188,
      "Ġinsist": 4189,
      "chanic": 4190,
      "Ġvest": 4191,
      "Ġunhappy": 4192,
      "Ġstrawberry": 4193,
      "Ġleaned": 4194,
      "Ġtaxi": 4195,
      "Jenny": 4196,
      "ected": 4197,
      "Ġsweetheart": 4198,
      "Ġknot": 4199,
      "Ġvide": 4200,
      "sely": 4201,
      "reeze": 4202,
      "Ġallig": 4203,
      "Ġalive": 4204,
      "Ġchalk": 4205,
      "Ġsunset": 4206,
      "Ġappl": 4207,
      "Ġgrabs": 4208,
      "Ġtheater": 4209,
      "Ġsandbox": 4210,
      "angu": 4211,
      "Ġfle": 4212,
      "Ġlangu": 4213,
      "Ġmechanic": 4214,
      "Ġputting": 4215,
      "Ġskill": 4216,
      "Ġcube": 4217,
      "ĠPapa": 4218,
      "Ġshovel": 4219,
      "Ġsprink": 4220,
      "ĠSnow": 4221,
      "cast": 4222,
      "ccer": 4223,
      "eath": 4224,
      "ĠWould": 4225,
      "ĠRos": 4226,
      "ĠBunny": 4227,
      "ecause": 4228,
      "Daddy": 4229,
      "Ġsoccer": 4230,
      "icer": 4231,
      "Ġhaircut": 4232,
      "Ġfields": 4233,
      "Ġcable": 4234,
      "Ġbelt": 4235,
      "Ġstrip": 4236,
      "erc": 4237,
      "Ġsock": 4238,
      "Ġmarry": 4239,
      "Ġfisher": 4240,
      "ckey": 4241,
      "ĠLee": 4242,
      "Ġhockey": 4243,
      "Ġclosely": 4244,
      "Ġsaus": 4245,
      "Ġlaund": 4246,
      "Ġglove": 4247,
      "Ġsandcast": 4248,
      "Ġporch": 4249,
      "Ġmen": 4250,
      "ison": 4251,
      "Ġsheet": 4252,
      "Ġlime": 4253,
      "Ġapologized": 4254,
      "Ġlaundry": 4255,
      "Ġbul": 4256,
      "Ġwelcomed": 4257,
      "Ġcreated": 4258,
      "Ġperfectly": 4259,
      "ĠMaria": 4260,
      "Ġpeek": 4261,
      "edy": 4262,
      "play": 4263,
      "mand": 4264,
      "Ġpapers": 4265,
      "icop": 4266,
      "achel": 4267,
      "icopter": 4268,
      "Ha": 4269,
      "stead": 4270,
      "Ġweather": 4271,
      "Ġkitty": 4272,
      "Ġsoftly": 4273,
      "Ġpress": 4274,
      "Ġmama": 4275,
      "Ġrag": 4276,
      "Ġquit": 4277,
      "Ġraft": 4278,
      "Ġdisag": 4279,
      "Ġdiary": 4280,
      "Ġmotorcycle": 4281,
      "Ġkayak": 4282,
      "ĠSophie": 4283,
      "Ġshade": 4284,
      "Ġseeing": 4285,
      "ceros": 4286,
      "Ġoyster": 4287,
      "aggie": 4288,
      "Ġbulb": 4289,
      "any": 4290,
      "ĠRo": 4291,
      "Ġhelicopter": 4292,
      "Ġcrib": 4293,
      "Ġbur": 4294,
      "Ġpoem": 4295,
      "Ġblowing": 4296,
      "ween": 4297,
      "Ġrever": 4298,
      "Ġexerc": 4299,
      "Ġsneak": 4300,
      "Ġnapkin": 4301,
      "Ġattention": 4302,
      "Ġmedal": 4303,
      "Ġbetween": 4304,
      "chair": 4305,
      "Ġmule": 4306,
      "Ġjudge": 4307,
      "Ġtuna": 4308,
      "affe": 4309,
      "Ġwaving": 4310,
      "Ġlend": 4311,
      "ides": 4312,
      "ÅĵYou": 4313,
      "Ġcelebrated": 4314,
      "Grandma": 4315,
      "ories": 4316,
      "Ġdisplay": 4317,
      "Ġfalling": 4318,
      "Ġrhinoceros": 4319,
      "bul": 4320,
      "Ġlie": 4321,
      "seum": 4322,
      "Ġvend": 4323,
      "Ġpastry": 4324,
      "Ġphoto": 4325,
      "Ġpal": 4326,
      "Ġkingdom": 4327,
      "Ġmuseum": 4328,
      "Ġshouldn": 4329,
      "Ġhotel": 4330,
      "Ġchickens": 4331,
      "Ġsoil": 4332,
      "Ġbaking": 4333,
      "gen": 4334,
      "ito": 4335,
      "Ġrot": 4336,
      "Ġpole": 4337,
      "Ġsteak": 4338,
      "Ġarmchair": 4339,
      "Ġcounter": 4340,
      "Ġpetals": 4341,
      "Ġpowder": 4342,
      "Ġaer": 4343,
      "opl": 4344,
      "Ġsmells": 4345,
      "Ġaeropl": 4346,
      "una": 4347,
      "Ġtwink": 4348,
      "Ġbasketball": 4349,
      "Ġpage": 4350,
      "Ġpanda": 4351,
      "TMm": 4352,
      "Ġfisherman": 4353,
      "Ġfreez": 4354,
      "Ġfishing": 4355,
      "Ġquarrel": 4356,
      "Ġinse": 4357,
      "Ġcane": 4358,
      "rosc": 4359,
      "Ġgolden": 4360,
      "Ġfeelings": 4361,
      "Ġtrail": 4362,
      "Ġminute": 4363,
      "Ġcardboard": 4364,
      "Ġviolin": 4365,
      "Ġgrocer": 4366,
      "Ġalligator": 4367,
      "ges": 4368,
      "unately": 4369,
      "Ġbreaks": 4370,
      "Ġradish": 4371,
      "Ġmicrosc": 4372,
      "Ġgiraffe": 4373,
      "Ġoil": 4374,
      "ense": 4375,
      "ĠWill": 4376,
      "Ġwife": 4377,
      "Ġfrogs": 4378,
      "Ġwinter": 4379,
      "Inside": 4380,
      "Ġglowing": 4381,
      "..": 4382,
      "quito": 4383,
      "Ġshoulder": 4384,
      "Ġpalace": 4385,
      "Ġmicroscope": 4386,
      "Ġstable": 4387,
      "Ġvet": 4388,
      "Ġtear": 4389,
      "Ġpresents": 4390,
      "ĠLilly": 4391,
      "Ġcups": 4392,
      "Ġimagine": 4393,
      "Ġdiscu": 4394,
      "Ġdrops": 4395,
      "Ġvendor": 4396,
      "ait": 4397,
      "eve": 4398,
      "Ġhut": 4399,
      "Ġflies": 4400,
      "Ġpassport": 4401,
      "Ġmemories": 4402,
      "Ġlawy": 4403,
      "Ġslept": 4404,
      "iture": 4405,
      "Ġshakes": 4406,
      "Ġchirp": 4407,
      "Ġflame": 4408,
      "urniture": 4409,
      "Ġheaded": 4410,
      "Ġforgotten": 4411,
      "Ġsailing": 4412,
      "iday": 4413,
      "Ġfauc": 4414,
      "Ġheads": 4415,
      "Ġeagerly": 4416,
      "Ġbananas": 4417,
      "Emma": 4418,
      "Ġfurniture": 4419,
      "Ġmos": 4420,
      "Ġplanet": 4421,
      "Ġrubber": 4422,
      "Ġswung": 4423,
      "Ġjourn": 4424,
      "Ġimagination": 4425,
      "Ġtoil": 4426,
      "aud": 4427,
      "Ġmaze": 4428,
      "Ġcherries": 4429,
      "inarian": 4430,
      "Ġoffer": 4431,
      "Ġtrave": 4432,
      "Ġambul": 4433,
      "eterinarian": 4434,
      "Ġbarks": 4435,
      "Ġmosquito": 4436,
      "ĠHarry": 4437,
      "low": 4438,
      "Ġtub": 4439,
      "ero": 4440,
      "imney": 4441,
      "Ġplayer": 4442,
      "Ġveterinarian": 4443,
      "ĠdonÃ¢": 4444,
      "Ġcrow": 4445,
      "Ġaccepted": 4446,
      "Ġskull": 4447,
      "Ġskirt": 4448,
      "Ġsprayed": 4449,
      "Today": 4450,
      "Ġjellyfish": 4451,
      "Ġfaucet": 4452,
      "Ġbreeze": 4453,
      "place": 4454,
      "Ġshower": 4455,
      "Ġdancer": 4456,
      "Ġceiling": 4457,
      "Ġavocado": 4458,
      "Ġstaff": 4459,
      "Ġchimney": 4460,
      "Ġmystery": 4461,
      "Ġplastic": 4462,
      "izes": 4463,
      "ippery": 4464,
      "ĠUn": 4465,
      "Ġflea": 4466,
      "Ġlanguage": 4467,
      "Ġtoilet": 4468,
      "Eventually": 4469,
      "Ġdressed": 4470,
      "Ġstraight": 4471,
      "Ġtriangle": 4472,
      "Next": 4473,
      "liday": 4474,
      "ues": 4475,
      "Ġholiday": 4476,
      "Ġslippery": 4477,
      "Ġmagaz": 4478,
      "Ġjournal": 4479,
      "Ch": 4480,
      "Ġlives": 4481,
      "urch": 4482,
      "Ġbaseball": 4483,
      "Ġambulance": 4484,
      "tress": 4485,
      "Ġreve": 4486,
      "Ġmattress": 4487,
      "Ġlawyer": 4488,
      "nger": 4489,
      "ĠKate": 4490,
      "elcome": 4491,
      "Ġmop": 4492,
      "Ġshouting": 4493,
      "ngth": 4494,
      "ĠInstead": 4495,
      "Ġstud": 4496,
      "Ġignored": 4497,
      "Ġcheek": 4498,
      "Ġstrength": 4499,
      "Ġinvest": 4500,
      "Ġitch": 4501,
      "Ġink": 4502,
      "ents": 4503,
      "rod": 4504,
      "Ġintrod": 4505,
      "Ġaeroplane": 4506,
      "Ġpine": 4507,
      "bbie": 4508,
      "Ġprevent": 4509,
      "Ġattach": 4510,
      "Ġrelaxed": 4511,
      "Ġseparate": 4512,
      "Ġapplaud": 4513,
      "Ġinvestig": 4514,
      "Ġsince": 4515,
      "Ġseas": 4516,
      "Ġworth": 4517,
      "Ġbury": 4518,
      "Ġcollected": 4519,
      "Ġclassroom": 4520,
      "uby": 4521,
      "Ġble": 4522,
      "Ġlawn": 4523,
      "ĠBaby": 4524,
      "Together": 4525,
      "Ġpirates": 4526,
      "ĠRosie": 4527,
      "Ġinf": 4528,
      "asis": 4529,
      "Ġbouncing": 4530,
      "Ġpuddles": 4531,
      "Ġsurround": 4532,
      "case": 4533,
      "asher": 4534,
      "washer": 4535,
      "Ġhar": 4536,
      "Ġsque": 4537,
      "anges": 4538,
      "Ġpinch": 4539,
      "Ġsung": 4540,
      "Ġfireplace": 4541,
      "Ġmarried": 4542,
      "Ġmeeting": 4543,
      "Ġdishwasher": 4544,
      "Ġyogurt": 4545,
      "lass": 4546,
      "Ġhappens": 4547,
      "Ġfog": 4548,
      "Ġbelongs": 4549,
      "ĠOr": 4550,
      "Ġwool": 4551,
      "Ġweep": 4552,
      "Ġburned": 4553,
      "Ġhanging": 4554,
      "Ġoasis": 4555,
      "Ġwriting": 4556,
      "Ġsquirrels": 4557,
      "Ġmistakes": 4558,
      "Ġwhisper": 4559,
      "ĠAnnie": 4560,
      "Ġpopped": 4561,
      "Ġmoves": 4562,
      "Ġargue": 4563,
      "Ġsniffed": 4564,
      "ives": 4565,
      "Ġaut": 4566,
      "ĠSu": 4567,
      "Ġyield": 4568,
      "Ġcob": 4569,
      "iately": 4570,
      "te": 4571,
      "Ġsir": 4572,
      "Your": 4573,
      "reek": 4574,
      "Ġdoors": 4575,
      "mediately": 4576,
      "Ġnovel": 4577,
      "ssible": 4578,
      "Ġflapped": 4579,
      "Ġgrin": 4580,
      "orses": 4581,
      "Ġfreezer": 4582,
      "Because": 4583,
      "Ġcreek": 4584,
      "ĠTony": 4585,
      "Ġgym": 4586,
      "une": 4587,
      "ĠBun": 4588,
      "Ġimprove": 4589,
      "chie": 4590,
      "Ġinvestigate": 4591,
      "Ġhorses": 4592,
      "ĠSee": 4593,
      "Ġpoke": 4594,
      "Ġward": 4595,
      "Ġsteam": 4596,
      "Ġblankets": 4597,
      "Ġthrowing": 4598,
      "web": 4599,
      "Ġchoice": 4600,
      "Ġscolded": 4601,
      "Ġwardrobe": 4602,
      "Ġpra": 4603,
      "Ġchess": 4604,
      "Thanks": 4605,
      "Ġhopes": 4606,
      "Ġbelow": 4607,
      "Ġparent": 4608,
      "ler": 4609,
      "ising": 4610,
      "Ġknown": 4611,
      "Ġagre": 4612,
      "Ġpoints": 4613,
      "Ġalarm": 4614,
      "Ġnews": 4615,
      "Ġcrawling": 4616,
      "Ġinsect": 4617,
      "ĠIÃ¢": 4618,
      "hero": 4619,
      "Ġzipper": 4620,
      "hic": 4621,
      "Ġpit": 4622,
      "Ġeaten": 4623,
      "Ġdear": 4624,
      "Ġentered": 4625,
      "Ġfolder": 4626,
      "Ġscrew": 4627,
      "Ġsuperhero": 4628,
      "imi": 4629,
      "ĠitÃ¢": 4630,
      "Ġrequ": 4631,
      "Ġquack": 4632,
      "Ġappro": 4633,
      "Ġvehic": 4634,
      "Ġcrossed": 4635,
      "ites": 4636,
      "chor": 4637,
      "Ġgreedy": 4638,
      "Ġsticky": 4639,
      "ÅĵItÃ¢": 4640,
      "Ġpenguin": 4641,
      "Ġcobweb": 4642,
      "right": 4643,
      "Ġwigg": 4644,
      "Ġcomplain": 4645,
      "house": 4646,
      "ĠJul": 4647,
      "Ġfactor": 4648,
      "Ġmustache": 4649,
      "Ġthrows": 4650,
      "lasses": 4651,
      "men": 4652,
      "vision": 4653,
      "Ġig": 4654,
      "Ġamazement": 4655,
      "ĠRachel": 4656,
      "Ġapart": 4657,
      "Ġsunglasses": 4658,
      "Ġigloo": 4659,
      "inked": 4660,
      "Ġchurch": 4661,
      "rs": 4662,
      "Ġstro": 4663,
      "Ġminer": 4664,
      "Ġsqueezed": 4665,
      "Ġherb": 4666,
      "ety": 4667,
      "Ġrake": 4668,
      "Ġopera": 4669,
      "Ġconf": 4670,
      "Ġsplashing": 4671,
      "Ġfactory": 4672,
      "Ġcared": 4673,
      "Ġfiref": 4674,
      "fortunately": 4675,
      "Ġregret": 4676,
      "ĠBet": 4677,
      "Ġairpl": 4678,
      "Ġveil": 4679,
      "Ġshrugged": 4680,
      "Ġfile": 4681,
      "Ġwipe": 4682,
      "mend": 4683,
      "rm": 4684,
      "Ġshrink": 4685,
      "Ġtelevision": 4686,
      "sit": 4687,
      "Ġfought": 4688,
      "Ġcell": 4689,
      "ores": 4690,
      "Ġboot": 4691,
      "Ġpear": 4692,
      "ups": 4693,
      "Ġrequest": 4694,
      "Ġbother": 4695,
      "omob": 4696,
      "Ġoak": 4697,
      "aces": 4698,
      "Ġfloat": 4699,
      "ring": 4700,
      "Ġthumb": 4701,
      "Ġswamp": 4702,
      "Ġincre": 4703,
      "Ġautomob": 4704,
      "mm": 4705,
      "ommend": 4706,
      "Ġbookcase": 4707,
      "Ġdemand": 4708,
      "Ġquietly": 4709,
      "ab": 4710,
      "lier": 4711,
      "Ġsuff": 4712,
      "Ġtherm": 4713,
      "Ġcaring": 4714,
      "Ġrecommend": 4715,
      "Ġanchor": 4716,
      "Ġknob": 4717,
      "Ġrail": 4718,
      "Mandy": 4719,
      "ĠJess": 4720,
      "Ġgrill": 4721,
      "Ġrooms": 4722,
      "Ġsparkle": 4723,
      "aw": 4724,
      "Ġsizes": 4725,
      "Ġpur": 4726,
      "atie": 4727,
      "Ġvac": 4728,
      "Ġringing": 4729,
      "Ġsqueeze": 4730,
      "'.": 4731,
      "Ġtucked": 4732,
      "ĠHelp": 4733,
      "Ġraz": 4734,
      "Ġsparkling": 4735,
      "Ġeasily": 4736,
      "Ġyoga": 4737,
      "Ġweigh": 4738,
      "Ġagree": 4739,
      "Sammy": 4740,
      "Ġsupply": 4741,
      "ĠGod": 4742,
      "uckily": 4743,
      "Ġblinked": 4744,
      "Ġthermomet": 4745,
      "amber": 4746,
      "Ġspear": 4747,
      "Ġsurprises": 4748,
      "Ġdelay": 4749,
      "Ġsafety": 4750,
      "ĠCharlie": 4751,
      "Ġrefre": 4752,
      "nam": 4753,
      "Ġhelper": 4754,
      "Ġblackboard": 4755,
      "Ġlemonade": 4756,
      "omes": 4757,
      "Ġmakeup": 4758,
      "Ġhills": 4759,
      "tain": 4760,
      "Ġbravely": 4761,
      "Ġunif": 4762,
      "Ġspending": 4763,
      "ĠTrue": 4764,
      "Ġvideo": 4765,
      "vet": 4766,
      "Ġtrusted": 4767,
      "Ġwandered": 4768,
      "Ġwags": 4769,
      "ĠDanny": 4770,
      "Ġlaught": 4771,
      "Ġmagazine": 4772,
      "Ġtug": 4773,
      "Ġhurting": 4774,
      "Ġteleph": 4775,
      "Ann": 4776,
      "Wait": 4777,
      "raged": 4778,
      "Ġmusician": 4779,
      "Ġvanished": 4780,
      "Ġcherry": 4781,
      "Ġjunk": 4782,
      "Ġearlier": 4783,
      "Ġthermometer": 4784,
      "Ġuniform": 4785,
      "cakes": 4786,
      "Ġreaches": 4787,
      "Ġquiz": 4788,
      "Ġletting": 4789,
      "Ġfallen": 4790,
      "Ġdisappear": 4791,
      "Ġmint": 4792,
      "Ġbattery": 4793,
      "Ġlaughter": 4794,
      "Ġtelephone": 4795,
      "Ġwaste": 4796,
      "ĠTed": 4797,
      "Ġsaving": 4798,
      "icing": 4799,
      "Ġcliff": 4800,
      "bor": 4801,
      "oral": 4802,
      "fume": 4803,
      "Ġprop": 4804,
      "Ġornam": 4805,
      "Ġraise": 4806,
      "Ġkisses": 4807,
      "Ġticket": 4808,
      "Ġtemple": 4809,
      "Ġisn": 4810,
      "Ġfastest": 4811,
      "Ġkeeping": 4812,
      "Ġunderstanding": 4813,
      "Ġapron": 4814,
      "Ġdestination": 4815,
      "Ġrazor": 4816,
      "ived": 4817,
      "Ġport": 4818,
      "Ġspade": 4819,
      "Ġhardly": 4820,
      "Ġflutter": 4821,
      "Ġskills": 4822,
      "Ġtoes": 4823,
      "Ġberry": 4824,
      "Ġyucky": 4825,
      "Ġperfume": 4826,
      "Ġcastles": 4827,
      "Ġbeef": 4828,
      "Ġserve": 4829,
      "Ġstrawberries": 4830,
      "Ġsettled": 4831,
      "ction": 4832,
      "Did": 4833,
      "Ġitem": 4834,
      "Ġrise": 4835,
      "ĠNext": 4836,
      "Ġmailman": 4837,
      "Ġprepare": 4838,
      "Ġinfant": 4839,
      "ĠEach": 4840,
      "Ġpoked": 4841,
      "Ġimmediately": 4842,
      "Ġfollowing": 4843,
      "ggy": 4844,
      "ĠClara": 4845,
      "Ġexperience": 4846,
      "ium": 4847,
      "Ġtong": 4848,
      "Ġdire": 4849,
      "Ġpalm": 4850,
      "Ġchamber": 4851,
      "Ġkneel": 4852,
      "Ġmuffin": 4853,
      "Ġvroom": 4854,
      "Ġchairs": 4855,
      "Ġinstr": 4856,
      "Ġscattered": 4857,
      "Ġharbor": 4858,
      "Ġlotion": 4859,
      "Ġoranges": 4860,
      "Ġremove": 4861,
      "Ġfollows": 4862,
      "Ġcabinet": 4863,
      "Ġdried": 4864,
      "âĤ¬.": 4865,
      "Ġcrash": 4866,
      "Ġhearts": 4867,
      "Ġblueberries": 4868,
      "Ġtut": 4869,
      "Ġweap": 4870,
      "ĠJames": 4871,
      "Ġleak": 4872,
      "Ġdresses": 4873,
      "Ġautomobile": 4874,
      "Ġwine": 4875,
      "ĠIts": 4876,
      "Ġwarmth": 4877,
      "Ġspots": 4878,
      "With": 4879,
      "Will": 4880,
      "Ġcalls": 4881,
      "Ġenter": 4882,
      "ĠSnowy": 4883,
      "Ġpraised": 4884,
      "Ġburied": 4885,
      "Ġgrowled": 4886,
      "Ġreverse": 4887,
      "Ġtrade": 4888,
      "Ġclaws": 4889,
      "ampoo": 4890,
      "Ġsnap": 4891,
      "Ġbeans": 4892,
      "Ġbeamed": 4893,
      "ĠWho": 4894,
      "Ġmatches": 4895,
      "Ġmoments": 4896,
      "Ġadmir": 4897,
      "Ġshooting": 4898,
      "sing": 4899,
      "ĠHenry": 4900,
      "Ġplates": 4901,
      "Ġscooped": 4902,
      "Ġcoal": 4903,
      "Ġpuzzles": 4904,
      "Qu": 4905,
      "ib": 4906,
      "Ġremain": 4907,
      "Ġfloating": 4908,
      "Ġvacation": 4909,
      "Ġpist": 4910,
      "Ġpride": 4911,
      "asp": 4912,
      "izard": 4913,
      "Ġbrain": 4914,
      "Ġpistol": 4915,
      "ah": 4916,
      "Ġdaisy": 4917,
      "lend": 4918,
      "sters": 4919,
      "alley": 4920,
      "Ġpoison": 4921,
      "Ġideas": 4922,
      "Ġexercise": 4923,
      "Ġlumber": 4924,
      "Ġpanic": 4925,
      "Is": 4926,
      "Ġsigh": 4927,
      "aped": 4928,
      "ival": 4929,
      "Welcome": 4930,
      "Ġrow": 4931,
      "ionary": 4932,
      "Ġmass": 4933,
      "osity": 4934,
      "Ġsimp": 4935,
      "anna": 4936,
      "Ġcalend": 4937,
      "Ġignore": 4938,
      "Ġbalan": 4939,
      "Ġcuddled": 4940,
      "ictionary": 4941,
      "Ġshampoo": 4942,
      "Ġdrain": 4943,
      "Ġdestroyed": 4944,
      "Ġcalendar": 4945,
      "Ġpages": 4946,
      "Ġmyself": 4947,
      "Lisa": 4948,
      "Ġachie": 4949,
      "Ġdictionary": 4950,
      "ĠMay": 4951,
      "Ġvalley": 4952,
      "Ġdifferen": 4953,
      "Ġrestore": 4954,
      "Ġyawned": 4955,
      "Ġribbon": 4956,
      "Peter": 4957,
      "big": 4958,
      "Ġga": 4959,
      "Ġrabbits": 4960,
      "Ġtaller": 4961,
      "Ġworms": 4962,
      "Ġcandles": 4963,
      "Ġjewelry": 4964,
      "omeday": 4965,
      "'ve": 4966,
      "osed": 4967,
      "ari": 4968,
      "Ġinclud": 4969,
      "Ġairplane": 4970,
      "Ġjazz": 4971,
      "ĠSpike": 4972,
      "Ġmelted": 4973,
      "Ġwaffle": 4974,
      "Ġinsisted": 4975,
      "Ġequ": 4976,
      "Ġstad": 4977,
      "ĠKing": 4978,
      "Ġapproached": 4979,
      "Ġstadium": 4980,
      "Ġdigg": 4981,
      "Ġgear": 4982,
      "Ġsnapped": 4983,
      "Ġcaptain": 4984,
      "Ġwashing": 4985,
      "Ġlicks": 4986,
      "ission": 4987,
      "Ġdigging": 4988,
      "Jen": 4989,
      "ls": 4990,
      "Ġsty": 4991,
      "Ġstruc": 4992,
      "Ġpermission": 4993,
      "bigail": 4994,
      "Ġstructure": 4995,
      "Ġbill": 4996,
      "Ġhomes": 4997,
      "Ġfest": 4998,
      "ĠJoy": 4999,
      "ĠCo": 5000,
      "Ġmissile": 5001,
      "Ġpatiently": 5002,
      "nies": 5003,
      "riger": 5004,
      "ĠMiss": 5005,
      "ĠMimi": 5006,
      "xture": 5007,
      "Ġfloated": 5008,
      "Ġinvite": 5009,
      "Ġrefriger": 5010,
      "Ġmeasured": 5011,
      "Ġrefrigerator": 5012,
      "Ġwizard": 5013,
      "ishing": 5014,
      "Ġsandcastle": 5015,
      "Ġsomeday": 5016,
      "Ġbegged": 5017,
      "Ġshot": 5018,
      "ĠDan": 5019,
      "antly": 5020,
      "Ġplanes": 5021,
      "Ġsub": 5022,
      "ĠBefore": 5023,
      "Ġweeks": 5024,
      "Ġvehicle": 5025,
      "Ġcrunch": 5026,
      "ĠRuby": 5027,
      "Ġbelieved": 5028,
      "ĠFreddy": 5029,
      "Ġsetting": 5030,
      "Ġsigns": 5031,
      "Ġreceived": 5032,
      "Ġres": 5033,
      "Ġalright": 5034,
      "ĠSteve": 5035,
      "Ġtongue": 5036,
      "Ġtutor": 5037,
      "Yuck": 5038,
      "Ġnone": 5039,
      "Ġexamine": 5040,
      "Ġfuel": 5041,
      "Ġstruggling": 5042,
      "All": 5043,
      "Ġsport": 5044,
      "Ġblood": 5045,
      "TMre": 5046,
      "Ġteaching": 5047,
      "Ġsolved": 5048,
      "Ġsneeze": 5049,
      "Ġbumped": 5050,
      "Ġolive": 5051,
      "ops": 5052,
      "inky": 5053,
      "Ġmodel": 5054,
      "Ġscratch": 5055,
      "Fl": 5056,
      "Ġhers": 5057,
      "Ġblouse": 5058,
      "Ġparts": 5059,
      "Ġencouraged": 5060,
      "Ġbreathe": 5061,
      "Ġdiscuss": 5062,
      "Ġshed": 5063,
      "Ġchores": 5064,
      "Ġthrilled": 5065,
      "ĠRe": 5066,
      "Ġcoats": 5067,
      "Ġjewels": 5068,
      "Ġgrape": 5069,
      "Ġappreciate": 5070,
      "Ġtide": 5071,
      "Ġinvit": 5072,
      "ĠV": 5073,
      "Ġtore": 5074,
      "Ġlily": 5075,
      "Ġmention": 5076,
      "Ġplays": 5077,
      "TMll": 5078,
      "Ġhits": 5079,
      "Ġbuzzing": 5080,
      "Ġchirping": 5081,
      "fy": 5082,
      "Ġdare": 5083,
      "Ġscore": 5084,
      "ĠPenny": 5085,
      "Ġpaused": 5086,
      "Ġpulling": 5087,
      "Johnny": 5088,
      "Ġbookshe": 5089,
      "Ġdeeper": 5090,
      "Ġbathe": 5091,
      "Ġcollecting": 5092,
      "Ġmarbles": 5093,
      "Ġbleed": 5094,
      "Ġbang": 5095,
      "Ġgust": 5096,
      "Ġunite": 5097,
      "Ġsparkles": 5098,
      "Ġstomach": 5099,
      "Ġnation": 5100,
      "Ġupstairs": 5101,
      "Ġprovide": 5102,
      "Ġsew": 5103,
      "Ġsupposed": 5104,
      "Ġburning": 5105,
      "Ġpunish": 5106,
      "Ġsausage": 5107,
      "Ġdifference": 5108,
      "Mark": 5109,
      "Ġjail": 5110,
      "Ġcub": 5111,
      "Ġclimbs": 5112,
      "iers": 5113,
      "htray": 5114,
      "Ġashtray": 5115,
      "Ġsunlight": 5116,
      "ĠEveryday": 5117,
      "Ġglowed": 5118,
      "ÅĵNo": 5119,
      "Ġattached": 5120,
      "Ġneighborhood": 5121,
      "fied": 5122,
      "uggage": 5123,
      "Ġlabel": 5124,
      "Ġtornado": 5125,
      "Ġfestival": 5126,
      "Not": 5127,
      "Ġluggage": 5128,
      "Ġwhip": 5129,
      "Ġnewsp": 5130,
      "ĠBuzz": 5131,
      "ĠPeople": 5132,
      "Ġreplace": 5133,
      "Ġwhistling": 5134,
      "Ġnewspap": 5135,
      "ĠHave": 5136,
      "allen": 5137,
      "Ġgirls": 5138,
      "Ġmanage": 5139,
      "ĠFo": 5140,
      "Ġjogging": 5141,
      "Ġteasp": 5142,
      "Ġwarning": 5143,
      "Ġteaspoon": 5144,
      "Ġhesit": 5145,
      "Ġeff": 5146,
      "These": 5147,
      "Ġlic": 5148,
      "ĠMaggie": 5149,
      "umble": 5150,
      "Ġbirdc": 5151,
      "Ġfasc": 5152,
      "Ġgifts": 5153,
      "Ġdiscovery": 5154,
      "Ġroot": 5155,
      "emember": 5156,
      "Ġtwisted": 5157,
      "Ġbookshelf": 5158,
      "Ġbirdcage": 5159,
      "act": 5160,
      "eed": 5161,
      "Ġmeowed": 5162,
      "Ġchallen": 5163,
      "Ġweapon": 5164,
      "Ġsip": 5165,
      "ĠTina": 5166,
      "Ġlaid": 5167,
      "Ġoper": 5168,
      "Ġcollection": 5169,
      "Ġcomfy": 5170,
      "Ġguy": 5171,
      "xy": 5172,
      "ĠLuna": 5173,
      "Ġdrinking": 5174,
      "Ġsafari": 5175,
      "Ġrush": 5176,
      "Ġsoldiers": 5177,
      "Ġbricks": 5178,
      "Ġrepeat": 5179,
      "Ġfut": 5180,
      "Ġemer": 5181,
      "ĠIs": 5182,
      "Ġranch": 5183,
      "Ġelephants": 5184,
      "Ġactually": 5185,
      "ities": 5186,
      "Ġstitch": 5187,
      "Ġremained": 5188,
      "Ġfuture": 5189,
      "Ġhanger": 5190,
      "Ġlick": 5191,
      "Ġchir": 5192,
      "Before": 5193,
      "bers": 5194,
      "Ġmall": 5195,
      "Ġgain": 5196,
      "Ġbeg": 5197,
      "Ġwatered": 5198,
      "Ġgrey": 5199,
      "ĠGood": 5200,
      "Ġsits": 5201,
      "Ġdecorations": 5202,
      "Ġawe": 5203,
      "Ġblueberry": 5204,
      "Ġmassage": 5205,
      "Ġfascin": 5206,
      "Ġchirped": 5207,
      "rise": 5208,
      "ĠLater": 5209,
      "Ġmeasuring": 5210,
      "do": 5211,
      "Ġscur": 5212,
      "Ġflood": 5213,
      "Ġcurled": 5214,
      "Ġurge": 5215,
      "Ġsprinkles": 5216,
      "Ġgrocery": 5217,
      "nie": 5218,
      "Ġbak": 5219,
      "Ġrhy": 5220,
      "Ġprayed": 5221,
      "allow": 5222,
      "Ġdecision": 5223,
      "ĠChirp": 5224,
      "Ġpatterns": 5225,
      "mother": 5226,
      "bbled": 5227,
      "ipment": 5228,
      "Ġwherever": 5229,
      "Ġcontain": 5230,
      "Ġbites": 5231,
      "Ġlicense": 5232,
      "Ġsore": 5233,
      "Ġwatches": 5234,
      "Ġfixing": 5235,
      "Ġsatis": 5236,
      "Ġbuildings": 5237,
      "Ġproblems": 5238,
      "Ġequipment": 5239,
      "oved": 5240,
      "Ġprice": 5241,
      "walk": 5242,
      "Ġtoe": 5243,
      "Ġfireworks": 5244,
      "Ġobserve": 5245,
      "Ok": 5246,
      "Ġcrunchy": 5247,
      "Ġfed": 5248,
      "Ġlect": 5249,
      "Ġworse": 5250,
      "Ġtease": 5251,
      "Ġraised": 5252,
      "Ġcrashed": 5253,
      "Ġeasier": 5254,
      "sity": 5255,
      "utty": 5256,
      "Ġsunrise": 5257,
      "Ġzero": 5258,
      "Ġvel": 5259,
      "Emily": 5260,
      "Ġnewspaper": 5261,
      "Ġcakes": 5262,
      "Ġsoared": 5263,
      "Ġinvitation": 5264,
      "Ġlecture": 5265,
      "Ġvelvet": 5266,
      "Mmm": 5267,
      "ude": 5268,
      "Ġduring": 5269,
      "Ġpigs": 5270,
      "Ġwhistled": 5271,
      "Ġsliding": 5272,
      "Ġmemory": 5273,
      "Ġsuffer": 5274,
      "\",": 5275,
      "Ġracing": 5276,
      "Ġpeanuts": 5277,
      "Ġreceive": 5278,
      "Ġgrinned": 5279,
      "Ġeffort": 5280,
      "!'": 5281,
      "ging": 5282,
      "Ġflav": 5283,
      "thm": 5284,
      "Ġsidewalk": 5285,
      "Ġbathrobe": 5286,
      "Ġstrang": 5287,
      "Ġclearing": 5288,
      "ÅĵThatÃ¢": 5289,
      "Ġrefreshed": 5290,
      "Ġmitten": 5291,
      "seek": 5292,
      "Ġtremb": 5293,
      "Ġpeered": 5294,
      "Ġzipped": 5295,
      "Ġplanted": 5296,
      "Ġearthqu": 5297,
      "Ġrecognized": 5298,
      "Ouch": 5299,
      "Ġbes": 5300,
      "Ġbeat": 5301,
      "Ġsocks": 5302,
      "Ġdoggy": 5303,
      "Ġskipping": 5304,
      "Ġappear": 5305,
      "Ġmarching": 5306,
      "ĠOllie": 5307,
      "Ġwre": 5308,
      "Ġwid": 5309,
      "Ġremem": 5310,
      "Ġturning": 5311,
      "Ġchewed": 5312,
      "Ġcartoons": 5313,
      "Ġsurrounded": 5314,
      "cles": 5315,
      "uing": 5316,
      "Ġwarn": 5317,
      "Ġbrick": 5318,
      "Ġsimple": 5319,
      "Ġbillboard": 5320,
      "cious": 5321,
      "Ġcompany": 5322,
      "Ġrespons": 5323,
      "Ġtracks": 5324,
      "Ġremembers": 5325,
      "Jake": 5326,
      "son": 5327,
      "Ġrust": 5328,
      "ĠMat": 5329,
      "Ġspit": 5330,
      "Ġbrus": 5331,
      "Ġhated": 5332,
      "Ġpastel": 5333,
      "ÅĵIÃ¢": 5334,
      "Ġhurric": 5335,
      "Ġrhythm": 5336,
      "oming": 5337,
      "Ġonwards": 5338,
      "aded": 5339,
      "Ġpossible": 5340,
      "Ġrested": 5341,
      "Ġbuckle": 5342,
      "Ġsnail": 5343,
      "Ġfirefight": 5344,
      "Ġheat": 5345,
      "Ġescaped": 5346,
      "Ġdinosaurs": 5347,
      "Ġadmiring": 5348,
      "Ġstrangers": 5349,
      "Ġleather": 5350,
      "Ġslice": 5351,
      "Ġordered": 5352,
      "Ġuniverse": 5353,
      "Ġoperation": 5354,
      "Ġhurricane": 5355,
      "Ġworks": 5356,
      "Ġlands": 5357,
      "Ġmountains": 5358,
      "Ġtomatoes": 5359,
      "Ġuniversity": 5360,
      "Ġmineral": 5361,
      "Ġpitch": 5362,
      "Ġhappiest": 5363,
      "Ġwanting": 5364,
      "!\",": 5365,
      "Ġours": 5366,
      "Ġcontinue": 5367,
      "Ġtwigs": 5368,
      "Ġdisagreed": 5369,
      "Ġbeside": 5370,
      "ĠMilly": 5371,
      "Ġhurried": 5372,
      "Moral": 5373,
      "Ġhate": 5374,
      "atch": 5375,
      "Ġnavy": 5376,
      "amie": 5377,
      "ĠMe": 5378,
      "Ġweren": 5379,
      "Ġrevealed": 5380,
      "Ġstyle": 5381,
      "loe": 5382,
      "Ġrained": 5383,
      "Ġperched": 5384,
      "Ġseats": 5385,
      "unday": 5386,
      "apping": 5387,
      "Ġobe": 5388,
      "Ġspaces": 5389,
      "Ġserved": 5390,
      "Ġfolded": 5391,
      "Ġprepared": 5392,
      "Ġoats": 5393,
      "Ġreminder": 5394,
      "Ġmenu": 5395,
      "ases": 5396,
      "Ġshopping": 5397,
      "Ġmouths": 5398,
      "Ġselling": 5399,
      "Ġagreement": 5400,
      "Ġearthquake": 5401,
      "cc": 5402,
      "adly": 5403,
      "Ġweight": 5404,
      "Ġpoppy": 5405,
      "Ġbrand": 5406,
      "Ġcrept": 5407,
      "Ġpracticing": 5408,
      "Would": 5409,
      "ĠSunday": 5410,
      "Ġkeeper": 5411,
      "Ġbringing": 5412,
      "Ġpupil": 5413,
      "hest": 5414,
      "Ġevent": 5415,
      "ddy": 5416,
      "ĠLiz": 5417,
      "Ġpaints": 5418,
      "Ġsecrets": 5419,
      "Ġcircus": 5420,
      "Ġwisdom": 5421,
      "Ġsings": 5422,
      "Ġfash": 5423,
      "Ġkindly": 5424,
      "Ġmonsters": 5425,
      "Ġanswers": 5426,
      "mble": 5427,
      "enty": 5428,
      "Ġeveryday": 5429,
      "Ġslip": 5430,
      "Ġpetted": 5431,
      "Ġdrinks": 5432,
      "Ġsettle": 5433,
      "Ġmister": 5434,
      "amb": 5435,
      "indy": 5436,
      "ĠFro": 5437,
      "Ġfamil": 5438,
      "ÅĵWe": 5439,
      "Ġspoons": 5440,
      "Sh": 5441,
      "Tweet": 5442,
      "Yum": 5443,
      "dam": 5444,
      "ĠAbigail": 5445,
      "Ġcopper": 5446,
      "Ġanytime": 5447,
      "Ġimage": 5448,
      "ĠNutty": 5449,
      "Ġcuriosity": 5450,
      "Ġswims": 5451,
      "Ġprecious": 5452,
      "Ġsneezed": 5453,
      "Ġobey": 5454,
      "Susie": 5455,
      "Ġbrings": 5456,
      "Ġrang": 5457,
      "Ġmuddy": 5458,
      "Ġtalent": 5459,
      "Ġguessed": 5460,
      "igz": 5461,
      "Ġspill": 5462,
      "Ġtrapped": 5463,
      "Ġcomple": 5464,
      "Ġvisiting": 5465,
      "len": 5466,
      "Ġbare": 5467,
      "Ġtremble": 5468,
      "Ġgotten": 5469,
      "Ġcutting": 5470,
      "Ġvillag": 5471,
      "Ġapologize": 5472,
      "Ġscratched": 5473,
      "Ġpotatoes": 5474,
      "Ġbeneath": 5475,
      "ĠSomeone": 5476,
      "Ro": 5477,
      "ĠTiny": 5478,
      "Ġpedal": 5479,
      "ĠBetsy": 5480,
      "Ġsubway": 5481,
      "Le": 5482,
      "tory": 5483,
      "Ġhistory": 5484,
      "Ġweighed": 5485,
      "Ġstruggled": 5486,
      "ĠZoe": 5487,
      "Ġpermit": 5488,
      "Ġolives": 5489,
      "Ready": 5490,
      "Ġitems": 5491,
      "Ex": 5492,
      "Ġx": 5493,
      "ĠJe": 5494,
      "Ġknelt": 5495,
      "Ġmeow": 5496,
      "Ġflap": 5497,
      "Ġbeds": 5498,
      "Ġwaits": 5499,
      "ĠKatie": 5500,
      "Ġfashion": 5501,
      "Ġcal": 5502,
      "Ġglitter": 5503,
      "Ġcreation": 5504,
      "ĠNot": 5505,
      "Ġpillows": 5506,
      "ding": 5507,
      "ley": 5508,
      "ĠHoppy": 5509,
      "Ġofficer": 5510,
      "ĠLetÃ¢": 5511,
      "Ġwaffles": 5512,
      "Really": 5513,
      "ĠChirpy": 5514,
      "terday": 5515,
      "anta": 5516,
      "izing": 5517,
      "Ġcatching": 5518,
      "Ġactiv": 5519,
      "Ġargued": 5520,
      "Ġsucceeded": 5521,
      "Ġcostumes": 5522,
      "Ġpadd": 5523,
      "neath": 5524,
      "Ġsix": 5525,
      "Ġbones": 5526,
      "Ġmice": 5527,
      "riage": 5528,
      "ĠCat": 5529,
      "Ġgrandmother": 5530,
      "Ġornament": 5531,
      "First": 5532,
      "Ġscoop": 5533,
      "Ġbowed": 5534,
      "Ġscreams": 5535,
      "Ġzooming": 5536,
      "Ġneighbourhood": 5537,
      "Ġfascinated": 5538,
      "Ġvillagers": 5539,
      "Dave": 5540,
      "uke": 5541,
      "Ġbun": 5542,
      "Ġarea": 5543,
      "ĠFirst": 5544,
      "Ġexamined": 5545,
      "looking": 5546,
      "Ġlips": 5547,
      "Fluffy": 5548,
      "Ġexact": 5549,
      "Ġlets": 5550,
      "Ġstudied": 5551,
      "Ġpeel": 5552,
      "Ġglo": 5553,
      "ĠCla": 5554,
      "joyed": 5555,
      "Ġshadows": 5556,
      "rin": 5557,
      "Ġsoaring": 5558,
      "Ġoverjoyed": 5559,
      "ÅĵThank": 5560,
      "Ġcomforted": 5561,
      "Ġpinched": 5562,
      "xygen": 5563,
      "Ġbegin": 5564,
      "Ġwaist": 5565,
      "etch": 5566,
      "Ġwhatever": 5567,
      "Ġpets": 5568,
      "Ġfreeze": 5569,
      "ĠHowever": 5570,
      "igzag": 5571,
      "Ġsitu": 5572,
      "Ġlemons": 5573,
      "Ġspaceship": 5574,
      "Ġgained": 5575,
      "Ġrides": 5576,
      "Ġencourage": 5577,
      "kins": 5578,
      "Ġdecides": 5579,
      "Ġvowed": 5580,
      "Ġtune": 5581,
      "ĠRemy": 5582,
      "omething": 5583,
      "Ġbrushed": 5584,
      "Ġsadness": 5585,
      "Ġdisturbed": 5586,
      "ĠSuzy": 5587,
      "Ġwreck": 5588,
      "Luckily": 5589,
      "ears": 5590,
      "gers": 5591,
      "Ġtip": 5592,
      "icorn": 5593,
      "Ġunicorn": 5594,
      "Ġbunnies": 5595,
      "Ġstruck": 5596,
      "ĠPoppy": 5597,
      "avid": 5598,
      "Andy": 5599,
      "Ġsting": 5600,
      "Ġoutdo": 5601,
      "Ġwooden": 5602,
      "Ġdrift": 5603,
      "Ġpancakes": 5604,
      "ien": 5605,
      "ĠOnce": 5606,
      "Ġallow": 5607,
      "Ġwond": 5608,
      "Ġaccidents": 5609,
      "Ġmarkers": 5610,
      "Ġeagle": 5611,
      "Ġsatisfied": 5612,
      "Ġlines": 5613,
      "Ġoxygen": 5614,
      "ays": 5615,
      "Ġneighbors": 5616,
      "ĠChr": 5617,
      "Ġrecognize": 5618,
      "Sometimes": 5619,
      "Ġripped": 5620,
      "ĠAm": 5621,
      "Ġaccom": 5622,
      "Ġspiders": 5623,
      "Ġnails": 5624,
      "ĠSharing": 5625,
      "Ġstripes": 5626,
      "ĠCoco": 5627,
      "Ġbleeding": 5628,
      "Ġgloves": 5629,
      "Ġbrid": 5630,
      "isten": 5631,
      "Ġpretti": 5632,
      "Ġunderground": 5633,
      "Ġguns": 5634,
      "Ġprettiest": 5635,
      "ales": 5636,
      "Ġtour": 5637,
      "ĠBeth": 5638,
      "Ġslapped": 5639,
      "Ġunderneath": 5640,
      "Ġrocked": 5641,
      "ĠBubbles": 5642,
      "Ġintroduc": 5643,
      "Ġexactly": 5644,
      "ĠAn": 5645,
      "Ġowned": 5646,
      "ĠSpark": 5647,
      "Ġdecorated": 5648,
      "Ġcaut": 5649,
      "ĠItÃ¢": 5650,
      "Ġloving": 5651,
      "Ġprune": 5652,
      "Ġdownstairs": 5653,
      "Ġbeha": 5654,
      "Ġtravell": 5655,
      "Ġinstruct": 5656,
      "Ġrele": 5657,
      "Ġlandsc": 5658,
      "Ġprotected": 5659,
      "Ġcuddle": 5660,
      "Ġacorns": 5661,
      "Ġbarely": 5662,
      "Ġrealize": 5663,
      "Ġvoices": 5664,
      "Ġprinter": 5665,
      "Ġtugged": 5666,
      "ÅĵDon": 5667,
      "Ġstretching": 5668,
      "Ġtwirling": 5669,
      "Ġstealing": 5670,
      "Ġemergen": 5671,
      "Ġdied": 5672,
      "Ġloose": 5673,
      "Ġsuitc": 5674,
      "Ġmission": 5675,
      "Ġbouncy": 5676,
      "Ġunlocked": 5677,
      "Ġpiles": 5678,
      "annah": 5679,
      "Ġaccompl": 5680,
      "Ġbridges": 5681,
      "zie": 5682,
      "ica": 5683,
      "Ġbye": 5684,
      "ÅĵLook": 5685,
      "Ġparked": 5686,
      "Ġsolut": 5687,
      "Ġtickets": 5688,
      "ĠUncle": 5689,
      "Ġchallenge": 5690,
      "Un": 5691,
      "Ġnicer": 5692,
      "Ġvict": 5693,
      "Ġfoods": 5694,
      "Ġyelling": 5695,
      "Ġladyb": 5696,
      "Ġplanned": 5697,
      "ĠFloppy": 5698,
      "âĤ¬âĢĿ": 5699,
      "ĠJulie": 5700,
      "Ġcompleted": 5701,
      "Ġbank": 5702,
      "ilo": 5703,
      "Ġsoak": 5704,
      "Ġexit": 5705,
      "ffic": 5706,
      "Ġtraffic": 5707,
      "Ġpupp": 5708,
      "Ġwinning": 5709,
      "Ġloaded": 5710,
      "Ġmater": 5711,
      "Ġmittens": 5712,
      "ĠBig": 5713,
      "ĠPip": 5714,
      "Ġmateri": 5715,
      "ashed": 5716,
      "Ġvent": 5717,
      "Ġbudge": 5718,
      "ÅĵCan": 5719,
      "Ġwrites": 5720,
      "Ġbreaking": 5721,
      "ĠOl": 5722,
      "Ġsights": 5723,
      "Ġbloomed": 5724,
      "Ġincrease": 5725,
      "Ġmentioned": 5726,
      "Ġlandscape": 5727,
      "edding": 5728,
      "Ġpearl": 5729,
      "thank": 5730,
      "Ġsteel": 5731,
      "Ġtastes": 5732,
      "Ġmuscles": 5733,
      "Ġdoctors": 5734,
      "ĠFrank": 5735,
      "Ġproperly": 5736,
      "Or": 5737,
      "Ġago": 5738,
      "ĠLucky": 5739,
      "bert": 5740,
      "ulu": 5741,
      "George": 5742,
      "Rex": 5743,
      "Joey": 5744,
      "Ġcontro": 5745,
      "Ġbottles": 5746,
      "Ġstirring": 5747,
      "Ġstamps": 5748,
      "Ġscurried": 5749,
      "zing": 5750,
      "ĠThese": 5751,
      "Ġbend": 5752,
      "Ġkeeps": 5753,
      "ĠAnne": 5754,
      "Ġpowers": 5755,
      "Happy": 5756,
      "Ġwonders": 5757,
      "Paul": 5758,
      "mare": 5759,
      "Ġdent": 5760,
      "Ġstair": 5761,
      "Ġpears": 5762,
      "Ġopin": 5763,
      "Ġjogged": 5764,
      "aster": 5765,
      "Ġshoulders": 5766,
      "Ġfiremen": 5767,
      "Ġprinted": 5768,
      "Ġpunished": 5769,
      "Ġoutdoors": 5770,
      "Ġinstructions": 5771,
      "ury": 5772,
      "Ġchef": 5773,
      "Ġwondering": 5774,
      "uesday": 5775,
      "ux": 5776,
      "ĠSomething": 5777,
      "Ġstole": 5778,
      "Ġwinner": 5779,
      "Bobby": 5780,
      "Mar": 5781,
      "die": 5782,
      "shing": 5783,
      "Ġpies": 5784,
      "ĠTw": 5785,
      "imy": 5786,
      "Ġcrumb": 5787,
      "Ġzigzag": 5788,
      "Ġruin": 5789,
      "iggy": 5790,
      "Ġgiggling": 5791,
      "Ġgathering": 5792,
      "Ġpouring": 5793,
      "Ġfigured": 5794,
      "bric": 5795,
      "nes": 5796,
      "oed": 5797,
      "Ġlux": 5798,
      "ishes": 5799,
      "Ġfabric": 5800,
      "Ġnightmare": 5801,
      "Ġburrow": 5802,
      "Ġincluded": 5803,
      "rr": 5804,
      "Ġtwinkling": 5805,
      "ednes": 5806,
      "ĠSanta": 5807,
      "Ġcones": 5808,
      "ĠKe": 5809,
      "Ġplanets": 5810,
      "Ġapplauded": 5811,
      "ednesday": 5812,
      "Ġwagging": 5813,
      "ĠTuesday": 5814,
      "Ġeast": 5815,
      "Ġyouth": 5816,
      "usan": 5817,
      "Ġseason": 5818,
      "Teddy": 5819,
      "zen": 5820,
      "ĠQu": 5821,
      "Ġwest": 5822,
      "Ġtonight": 5823,
      "Ġdam": 5824,
      "Ġlied": 5825,
      "Ġstrings": 5826,
      "though": 5827,
      "Ġbuckets": 5828,
      "Ġkeys": 5829,
      "Ġentire": 5830,
      "Ġsupplies": 5831,
      "Ġshivered": 5832,
      "Ġurged": 5833,
      "uly": 5834,
      "Ġwedding": 5835,
      "Ġgrant": 5836,
      "ĠCar": 5837,
      "Afterwards": 5838,
      "Ġhonk": 5839,
      "Ġsilence": 5840,
      "Ġemergency": 5841,
      "Ġinch": 5842,
      "Ġbeard": 5843,
      "Ġweb": 5844,
      "ĠBir": 5845,
      "Ġtexture": 5846,
      "ĠCarl": 5847,
      "ledge": 5848,
      "Ġforgi": 5849,
      "Ġguest": 5850,
      "uctantly": 5851,
      "Ġpurred": 5852,
      "Ġroaring": 5853,
      "ĠWednesday": 5854,
      "ĠDid": 5855,
      "Ġpebbles": 5856,
      "Ġteasing": 5857,
      "ÅĵThis": 5858,
      "Ġmarriage": 5859,
      "Ġrainbows": 5860,
      "Ġintroduce": 5861,
      "bies": 5862,
      "Ġknowledge": 5863,
      "avi": 5864,
      "lowly": 5865,
      "Ġconfident": 5866,
      "Ġintroduced": 5867,
      "Bella": 5868,
      "Pete": 5869,
      "uzz": 5870,
      "Ġsi": 5871,
      "omas": 5872,
      "Ġsoaked": 5873,
      "Ġbabies": 5874,
      "Ġtouching": 5875,
      "Ġsnowball": 5876,
      "Ġsurface": 5877,
      "Ġresponsible": 5878,
      "Ġsorting": 5879,
      "Ġeats": 5880,
      "Ġrocking": 5881,
      "Ġfrosting": 5882,
      "Ġacted": 5883,
      "Ġbrushes": 5884,
      ".'": 5885,
      "ora": 5886,
      "Ġsneaked": 5887,
      "Ġreleased": 5888,
      "Remember": 5889,
      "lee": 5890,
      "Ġclick": 5891,
      "Ġourselves": 5892,
      "Ġsteep": 5893,
      "Ġfrozen": 5894,
      "ĠChloe": 5895,
      "Ġclaps": 5896,
      "Ġcontrol": 5897,
      "hins": 5898,
      "aky": 5899,
      "ĠJosh": 5900,
      "ĠletÃ¢": 5901,
      "Ġcontest": 5902,
      "izzie": 5903,
      "exp": 5904,
      "Ġtickle": 5905,
      "Ġmovies": 5906,
      "Ġrubbing": 5907,
      "Cl": 5908,
      "Ġsides": 5909,
      "Ġeight": 5910,
      "Ġpeaches": 5911,
      "Ġpockets": 5912,
      "Ġfart": 5913,
      "Ġann": 5914,
      "Ġdragged": 5915,
      "Ġstorekeeper": 5916,
      "Ġreluctantly": 5917,
      "Ġmatching": 5918,
      "Ġsisters": 5919,
      "Ġexpected": 5920,
      "Ġpoliceman": 5921,
      "Ġhorns": 5922,
      "Ella": 5923,
      "Ġbunch": 5924,
      "Ġcape": 5925,
      "ĠSunny": 5926,
      "Ġshock": 5927,
      "inda": 5928,
      "ĠJan": 5929,
      "bbing": 5930,
      "Ġgreet": 5931,
      "Ġpaintings": 5932,
      "Ġdragons": 5933,
      "Ġscreaming": 5934,
      "Ġmixing": 5935,
      "Ġspraying": 5936,
      "Ġcompetition": 5937,
      "Ġdemanded": 5938,
      "ody": 5939,
      "va": 5940,
      "ira": 5941,
      "Ġplenty": 5942,
      "Ġbecoming": 5943,
      "Ġsorted": 5944,
      "ĠRa": 5945,
      "Ġsinger": 5946,
      "Ġproject": 5947,
      "Ġinterest": 5948,
      "ĠStop": 5949,
      "Ġshivering": 5950,
      "expected": 5951,
      "ĠHop": 5952,
      "ason": 5953,
      "Ġbravery": 5954,
      "Ġunexpected": 5955,
      "Ġdeser": 5956,
      "Ġresult": 5957,
      "Ġsituation": 5958,
      "Lola": 5959,
      "Ġruler": 5960,
      "Ġmachines": 5961,
      "Ġcrowd": 5962,
      "Ġsolution": 5963,
      "Mr": 5964,
      "ĠLike": 5965,
      "Ġowners": 5966,
      "ĠJohnson": 5967,
      "Ġdolphins": 5968,
      "Ġpoking": 5969,
      "Ġtruly": 5970,
      "Ġdraws": 5971,
      "Ġzookeeper": 5972,
      "Goodbye": 5973,
      "ĠSure": 5974,
      "Ġchat": 5975,
      "Ġwritten": 5976,
      "Ġprints": 5977,
      "Ġmatched": 5978,
      "Ġshelves": 5979,
      "Ġdiscovering": 5980,
      "Ġcountryside": 5981,
      "ÅĵDonÃ¢": 5982,
      "Ġsuitcase": 5983,
      "Ġluxury": 5984,
      "vin": 5985,
      "Ġsway": 5986,
      "reen": 5987,
      "Ġrelease": 5988,
      "usted": 5989,
      "ĠAlways": 5990,
      "Ġda": 5991,
      "ayla": 5992,
      "Ġgoals": 5993,
      "Ġgoodnight": 5994,
      "Ġexpect": 5995,
      "Ġpassing": 5996,
      "Ġchewing": 5997,
      "Ġcrackers": 5998,
      "Ġblooming": 5999,
      "Ġbalancing": 6000,
      "Ġachieve": 6001,
      "Ġcautious": 6002,
      "Ġvictory": 6003,
      "James": 6004,
      "fit": 6005,
      "iar": 6006,
      "you": 6007,
      "ern": 6008,
      "Ġpout": 6009,
      "irm": 6010,
      "Ġhugging": 6011,
      "Ġslimy": 6012,
      "Ġwaiter": 6013,
      "Ġcurtains": 6014,
      "Ye": 6015,
      "Ġfetch": 6016,
      "vers": 6017,
      "Ġblink": 6018,
      "ults": 6019,
      "Ġhighest": 6020,
      "Ġcheering": 6021,
      "ĠBuzzy": 6022,
      "Ġmuffins": 6023,
      "lowers": 6024,
      "Ġdirection": 6025,
      "Ġguys": 6026,
      "Ġtrembling": 6027,
      "Ġdentist": 6028,
      "jam": 6029,
      "rance": 6030,
      "hell": 6031,
      "ĠAdam": 6032,
      "ĠJamie": 6033,
      "Ġranger": 6034,
      "ĠLulu": 6035,
      "Ġkicking": 6036,
      "Ġmotion": 6037,
      "Ġrecorded": 6038,
      "Ġcamping": 6039,
      "Ġstruggle": 6040,
      "Ġsiren": 6041,
      "icky": 6042,
      "Ġsweets": 6043,
      "Ġcreating": 6044,
      "Ġhealed": 6045,
      "Ġdusty": 6046,
      "int": 6047,
      "iles": 6048,
      "Ġoutfit": 6049,
      "Ġhomework": 6050,
      "ÅĵHello": 6051,
      "Ġpolishing": 6052,
      "Ġpastries": 6053,
      "Ġrelief": 6054,
      "Ġdesp": 6055,
      "Ġroads": 6056,
      "ĠMatt": 6057,
      "ĠJeff": 6058,
      "Kitty": 6059,
      "appy": 6060,
      "cers": 6061,
      "udy": 6062,
      "itely": 6063,
      "ĠcanÃ¢": 6064,
      "oline": 6065,
      "Ġmarker": 6066,
      "Ġlibrarian": 6067,
      "ĠUnfortunately": 6068,
      "Ġcent": 6069,
      "Ġstaring": 6070,
      "ĠDavid": 6071,
      "Ġprayer": 6072,
      "Ġstudying": 6073,
      "Ġsausages": 6074,
      "Ġladybug": 6075,
      "Ġventured": 6076,
      "Mike": 6077,
      "Ġspike": 6078,
      "Ġexha": 6079,
      "Ġchips": 6080,
      "Ġbroom": 6081,
      "Ġpastels": 6082,
      "Grace": 6083,
      "Ġcurly": 6084,
      "Ġcompletely": 6085,
      "Ġdisagree": 6086,
      "ivery": 6087,
      "Ġti": 6088,
      "Ġstare": 6089,
      "agull": 6090,
      "Ġchases": 6091,
      "ÅĵOh": 6092,
      "Ġimportance": 6093,
      "Ġbaked": 6094,
      "...": 6095,
      "Yeah": 6096,
      "Maggie": 6097,
      "Ġtim": 6098,
      "Ġwound": 6099,
      "ĠFor": 6100,
      "ĠRob": 6101,
      "Ġdrives": 6102,
      "Millie": 6103,
      "Ġ1": 6104,
      "Ġworries": 6105,
      "asm": 6106,
      "essie": 6107,
      "ĠCindy": 6108,
      "Ġsweeties": 6109,
      "Ġarrive": 6110,
      "Ġdesert": 6111,
      "Ġscru": 6112,
      "However": 6113,
      "Ġpenguins": 6114,
      "Ġkneeled": 6115,
      "Ġfirm": 6116,
      "immer": 6117,
      "ĠBy": 6118,
      "Ġseagull": 6119,
      "ĠJones": 6120,
      "Ġscra": 6121,
      "Ġscales": 6122,
      "Ġprun": 6123,
      "Ġpartic": 6124,
      "Ġthreat": 6125,
      "ĠTilly": 6126,
      "Ġthro": 6127,
      "Ġshined": 6128,
      "Ġsnugg": 6129,
      "Ġnetwork": 6130,
      "Ġrescued": 6131,
      "Ġrepeated": 6132,
      "Ġgazed": 6133,
      "Ġactivities": 6134,
      "Ġexhausted": 6135,
      "Ah": 6136,
      "Alex": 6137,
      "Fr": 6138,
      "Ġfreed": 6139,
      "iding": 6140,
      "esome": 6141,
      "opes": 6142,
      "Ġcaused": 6143,
      "Ġentrance": 6144,
      "Ġarguing": 6145,
      "Ġthroat": 6146,
      "Ġcash": 6147,
      "Ġheel": 6148,
      "irts": 6149,
      "Ġtheirs": 6150,
      "Ġslap": 6151,
      "Ġfoc": 6152,
      "Ġunited": 6153,
      "Ġpatted": 6154,
      "Ġtrips": 6155,
      "Ġsnakes": 6156,
      "Ġwandering": 6157,
      "Ġleader": 6158,
      "Ġinclude": 6159,
      "Mittens": 6160,
      "Ġast": 6161,
      "ĠSadly": 6162,
      "ĠSusan": 6163,
      "igi": 6164,
      "Ġtowels": 6165,
      "Ġsticking": 6166,
      "ĠwasnÃ¢": 6167,
      "Ġpeeking": 6168,
      "Ġribbons": 6169,
      "Ġregretted": 6170,
      "Ġfarther": 6171,
      "jamas": 6172,
      "go": 6173,
      "Ġwink": 6174,
      "Ġfara": 6175,
      "Ġlamb": 6176,
      "Ġheav": 6177,
      "Ġboom": 6178,
      "ĠLou": 6179,
      "Ġcomm": 6180,
      "Ġdelivery": 6181,
      "Ġseesaw": 6182,
      "Ġpatience": 6183,
      "Ġobserved": 6184,
      "Ġquacked": 6185,
      "Ġparticular": 6186,
      "Ġfaraway": 6187,
      "ik": 6188,
      "hello": 6189,
      "Ġbead": 6190,
      "alph": 6191,
      "Ġrolls": 6192,
      "Ġreaching": 6193,
      "Grandpa": 6194,
      "Ġseems": 6195,
      "Mrs": 6196,
      "Ġstartled": 6197,
      "Ġlearns": 6198,
      "Ġcatches": 6199,
      "Ġusual": 6200,
      "Ġsingle": 6201,
      "Ġpolished": 6202,
      "Ġawesome": 6203,
      "ĠJon": 6204,
      "Ġfault": 6205,
      "Ġhowever": 6206,
      "ÅĵWhy": 6207,
      "ĠGr": 6208,
      "Sophie": 6209,
      "ne": 6210,
      "ĠyouÃ¢": 6211,
      "acob": 6212,
      "Ġsafer": 6213,
      "Ġorganizing": 6214,
      "Ġcrabs": 6215,
      "ĠZoom": 6216,
      "Ġreveal": 6217,
      "Ġsquealed": 6218,
      "Ġfirefighters": 6219,
      "Ġcrumbs": 6220,
      "Bun": 6221,
      "Harry": 6222,
      "Ġdared": 6223,
      "Ġflat": 6224,
      "Ġremoved": 6225,
      "Ġmarks": 6226,
      "ĠOut": 6227,
      "Ġtraveled": 6228,
      "ĠChrist": 6229,
      "dies": 6230,
      "Ġliqu": 6231,
      "Ġleap": 6232,
      "ĠMomo": 6233,
      "ÅĵMommy": 6234,
      "Ġrestored": 6235,
      "Ġdarkness": 6236,
      "Ġinviting": 6237,
      "Ġvanish": 6238,
      "Ġsandcastles": 6239,
      "ĠSuzie": 6240,
      "Ġherbs": 6241,
      "Ġdirect": 6242,
      "Ġopinion": 6243,
      "Ġliquid": 6244,
      "Ġboo": 6245,
      "ĠSlowly": 6246,
      "Ġstolen": 6247,
      "Ġstrike": 6248,
      "cuse": 6249,
      "Henry": 6250,
      "mas": 6251,
      "njoy": 6252,
      "ĠBye": 6253,
      "umm": 6254,
      "aced": 6255,
      "Ġpajamas": 6256,
      "Ġcuts": 6257,
      "Ġvalued": 6258,
      "Ġcoloured": 6259,
      "Ġtickled": 6260,
      "Ġwiggled": 6261,
      "ĠClaire": 6262,
      "Fred": 6263,
      "pe": 6264,
      "ords": 6265,
      "ĠMart": 6266,
      "Ġroots": 6267,
      "ĠLizzy": 6268,
      "Ġstroll": 6269,
      "Ġgaze": 6270,
      "Leo": 6271,
      "Ġpaddled": 6272,
      "ences": 6273,
      "ĠLuke": 6274,
      "Ġchuck": 6275,
      "Ġresting": 6276,
      "Ġgrowl": 6277,
      "Ġadding": 6278,
      "Annie": 6279,
      "ĠFollow": 6280,
      "Excuse": 6281,
      "Ġinterested": 6282,
      "ĠChristmas": 6283,
      "ĠYes": 6284,
      "Ġcause": 6285,
      "ently": 6286,
      "Ġfaced": 6287,
      "ĠEarth": 6288,
      "Ġswooped": 6289,
      "Ġeverybody": 6290,
      "Ġworker": 6291,
      "Ġusually": 6292,
      "Ġgrowling": 6293,
      "Ġpencils": 6294,
      "Ġsighs": 6295,
      "Ġprunes": 6296,
      "Ġbumpy": 6297,
      "Ġlined": 6298,
      "Ġnect": 6299,
      "Ġsomebody": 6300,
      "Ġlap": 6301,
      "Ġforehead": 6302,
      "coat": 6303,
      "Ġtallest": 6304,
      "Ġbuying": 6305,
      "Ġknights": 6306,
      "Ġitchy": 6307,
      "Ġnectar": 6308,
      "elia": 6309,
      "Ġopening": 6310,
      "boat": 6311,
      "angled": 6312,
      "Ġpots": 6313,
      "Ġfuzzy": 6314,
      "Ġgroceries": 6315,
      "Rose": 6316,
      "ĠĠĊ": 6317,
      "Ġstem": 6318,
      "Ġcans": 6319,
      "ĠJenna": 6320,
      "Ġweeping": 6321,
      "Ġbeads": 6322,
      "lings": 6323,
      "rious": 6324,
      "Ġflames": 6325,
      "Ġprincesses": 6326,
      "Ġmisses": 6327,
      "ĠBeing": 6328,
      "Ġflags": 6329,
      "Ġcracked": 6330,
      "Ġwires": 6331,
      "Ġsneaky": 6332,
      "Ġfamilies": 6333,
      "rops": 6334,
      "ĠMany": 6335,
      "aren": 6336,
      "ĠLarry": 6337,
      "Ġraind": 6338,
      "Ġraincoat": 6339,
      "Ġcovers": 6340,
      "Ġawake": 6341,
      "oh": 6342,
      "Ġty": 6343,
      "Ġcott": 6344,
      "Ġden": 6345,
      "Ġrisk": 6346,
      "Ġrumble": 6347,
      "ĠEls": 6348,
      "Ġpretends": 6349,
      "Ġyesterday": 6350,
      "Ġcelebration": 6351,
      "Ġimproved": 6352,
      "Uh": 6353,
      "Ġpause": 6354,
      "armer": 6355,
      "ana": 6356,
      "Ġripe": 6357,
      "ĠBoth": 6358,
      "Ġmane": 6359,
      "ĠLinda": 6360,
      "ĠThomas": 6361,
      "Ġteaches": 6362,
      "abel": 6363,
      "Ġbaker": 6364,
      "Unfortunately": 6365,
      "Sandy": 6366,
      "Ġdipped": 6367,
      "Ġopp": 6368,
      "Ġglee": 6369,
      "Ġstern": 6370,
      "ĠMilo": 6371,
      "oys": 6372,
      "Ġwrist": 6373,
      "Ġpacking": 6374,
      "hog": 6375,
      "Ġmiles": 6376,
      "Ġleading": 6377,
      "Ġmelting": 6378,
      "Ġmagnets": 6379,
      "ÅĵWhatÃ¢": 6380,
      "Ġtasks": 6381,
      "Ġprovided": 6382,
      "Ġtwinkle": 6383,
      "Ġbalanced": 6384,
      "Ġcashier": 6385,
      "Ġhi": 6386,
      "reat": 6387,
      "Ġbelly": 6388,
      "opsy": 6389,
      "bbly": 6390,
      "Ġsnuck": 6391,
      "brush": 6392,
      "Ġphotos": 6393,
      "Ġunpacked": 6394,
      "Ġaff": 6395,
      "Ġwasted": 6396,
      "ppers": 6397,
      "ĠLuckily": 6398,
      "Ġsnat": 6399,
      "Ġunf": 6400,
      "Ġreplaced": 6401,
      "Ġworkers": 6402,
      "Ġdef": 6403,
      "Ġreads": 6404,
      "ĠEmmy": 6405,
      "Ġnaps": 6406,
      "Ġrockets": 6407,
      "Ġraindrops": 6408,
      "Ġlung": 6409,
      "ena": 6410,
      "ĠBird": 6411,
      "ĠLizzie": 6412,
      "Ġstaying": 6413,
      "Ġsmiley": 6414,
      "Ġuses": 6415,
      "Ġwinked": 6416,
      "Ġprotecting": 6417,
      "Ġreply": 6418,
      "ĠJessie": 6419,
      "ĠRabbit": 6420,
      "ĠY": 6421,
      "hee": 6422,
      "Ġwow": 6423,
      "Ġpiggy": 6424,
      "arling": 6425,
      "Ġmarked": 6426,
      "Ġactions": 6427,
      "Ġdetermination": 6428,
      "Ġbeginning": 6429,
      "Ġaccomplish": 6430,
      "Ġcautiously": 6431,
      "Ġbars": 6432,
      "Ġswirl": 6433,
      "Ġcolored": 6434,
      "Ġbedtime": 6435,
      "Ġradishes": 6436,
      "Charlie": 6437,
      "Ġagrees": 6438,
      "ĠBetty": 6439,
      "Ġrecommended": 6440,
      "eke": 6441,
      "Ġlower": 6442,
      "Ġhissed": 6443,
      "ĠPipp": 6444,
      "Ġfilling": 6445,
      "Ġsecure": 6446,
      "Ġtalented": 6447,
      "boo": 6448,
      "ĠÌ": 6449,
      "ĠHannah": 6450,
      "ĠMad": 6451,
      "ĠAunt": 6452,
      "Ġtwin": 6453,
      "ĠPut": 6454,
      "Ġexplorers": 6455,
      "Ġspeaking": 6456,
      "Ġpaddle": 6457,
      "Ġtemper": 6458,
      "ĠJessica": 6459,
      "wk": 6460,
      "Ġtodd": 6461,
      "Ġcough": 6462,
      "Ġseven": 6463,
      "Ġtreehouse": 6464,
      "Ġtricked": 6465,
      "Ġsplashes": 6466,
      "Ġglasses": 6467,
      "Ġrecording": 6468,
      "Ġdirections": 6469,
      "ossible": 6470,
      "vest": 6471,
      "ĠMon": 6472,
      "Ġchoo": 6473,
      "Ġimpossible": 6474,
      "Ġparties": 6475,
      "Ġdarker": 6476,
      "Ġattack": 6477,
      "Ġcelebrating": 6478,
      "ĠLeave": 6479,
      "Ġgiraff": 6480,
      "Ġhedgehog": 6481,
      "Ġseashell": 6482,
      "Ġcalmed": 6483,
      "Ġdrifted": 6484,
      "Ġtimer": 6485,
      "Ġchuckled": 6486,
      "Kate": 6487,
      "ĠTess": 6488,
      "ido": 6489,
      "Ġhawk": 6490,
      "ĠSqu": 6491,
      "ormed": 6492,
      "?\",": 6493,
      "ĠWater": 6494,
      "Ġdancers": 6495,
      "ĠPrin": 6496,
      "ĠGigi": 6497,
      "Ġsailboat": 6498,
      "Ġgems": 6499,
      "Ġflavor": 6500,
      "ĠÌĥ": 6501,
      "Ġgiraffes": 6502,
      "Days": 6503,
      "ĠJay": 6504,
      "Ġfever": 6505,
      "Ġdiving": 6506,
      "Ġhallway": 6507,
      "ĠSparky": 6508,
      "cited": 6509,
      "Ġlogs": 6510,
      "Ġbacked": 6511,
      "Ġdeal": 6512,
      "Ġsteer": 6513,
      "Ġpleasure": 6514,
      "ophia": 6515,
      "Ġscrubbed": 6516,
      "Polly": 6517,
      "yond": 6518,
      "isies": 6519,
      "ids": 6520,
      "Ġinsp": 6521,
      "Ġbeyond": 6522,
      "rip": 6523,
      "Ġyounger": 6524,
      "ĠBo": 6525,
      "urry": 6526,
      "Ġrobb": 6527,
      "Ġconn": 6528,
      "Ġfairies": 6529,
      "ĠwouldnÃ¢": 6530,
      "ĠOw": 6531,
      "Ġfolding": 6532,
      "Ġpaying": 6533,
      "Ġtricky": 6534,
      "Ġartist": 6535,
      "Ġbakery": 6536,
      "Ġmaterials": 6537,
      "Ġpouted": 6538,
      "no": 6539,
      "Ġsense": 6540,
      "ĠHappy": 6541,
      "ĠMel": 6542,
      "ĠAbbie": 6543,
      "Ġchip": 6544,
      "Ġslices": 6545,
      "ths": 6546,
      "ĠRobby": 6547,
      "Ġrivers": 6548,
      "Ġbowls": 6549,
      "Ġhoriz": 6550,
      "Ġbumps": 6551,
      "Ġlollipops": 6552,
      "Ġobjects": 6553,
      "Ġcheeks": 6554,
      "Ġdaisies": 6555,
      "Ġtipt": 6556,
      "Ġtemperature": 6557,
      "bell": 6558,
      "Ġlun": 6559,
      "aty": 6560,
      "Ġknees": 6561,
      "Ġsquish": 6562,
      "Ġrubs": 6563,
      "Ġsquares": 6564,
      "Ġsnatched": 6565,
      "Ġhorizon": 6566,
      "ners": 6567,
      "arter": 6568,
      "ĠMo": 6569,
      "Ġsmarter": 6570,
      "Ġyourselves": 6571,
      "Ġcoloring": 6572,
      "Ġlistens": 6573,
      "itches": 6574,
      "Ġfroze": 6575,
      "Ġcreamy": 6576,
      "ĠJulia": 6577,
      "Ġfluttered": 6578,
      "Ġachieved": 6579,
      "ĠMaya": 6580,
      "Ġrusty": 6581,
      "Bl": 6582,
      "Fine": 6583,
      "Some": 6584,
      "ippy": 6585,
      "oey": 6586,
      "tle": 6587,
      "Ġscaring": 6588,
      "Ġtractor": 6589,
      "Ġbehavi": 6590,
      "Ġdreamt": 6591,
      "Ġmuscle": 6592,
      "cope": 6593,
      "the": 6594,
      "uzzy": 6595,
      "Ġsib": 6596,
      "Ġdarling": 6597,
      "Ġmi": 6598,
      "Ġsobbed": 6599,
      "Ġchop": 6600,
      "ĠFriend": 6601,
      "Ġcupcakes": 6602,
      "Ġembarrass": 6603,
      "Ġrefle": 6604,
      "Ġpedals": 6605,
      "Ġdiscussed": 6606,
      "Ġinstrum": 6607,
      "zes": 6608,
      "Ġhearing": 6609,
      "Ġlosing": 6610,
      "ĠEnjoy": 6611,
      "Ġgrassy": 6612,
      "Ġhealth": 6613,
      "Ġscarves": 6614,
      "Ġblows": 6615,
      "Ġcandies": 6616,
      "Ġarrows": 6617,
      "Ġdelivered": 6618,
      "Ġmasks": 6619,
      "ĠKeep": 6620,
      "ĠPrincess": 6621,
      "For": 6622,
      "Katie": 6623,
      "oni": 6624,
      "Ġweeke": 6625,
      "Ġaren": 6626,
      "Ġjoking": 6627,
      "ĠChe": 6628,
      "Ġfluttering": 6629,
      "Ġmixture": 6630,
      "Ġweekend": 6631,
      "fl": 6632,
      "urious": 6633,
      "Ġhitting": 6634,
      "Ġwadd": 6635,
      "Ġmes": 6636,
      "ility": 6637,
      "ĠSorry": 6638,
      "Ġrip": 6639,
      "ĠAbby": 6640,
      "ĠDolly": 6641,
      "Ġstays": 6642,
      "ĠPo": 6643,
      "Ġcloses": 6644,
      "Ġafterwards": 6645,
      "ĠAsh": 6646,
      "ĠTodd": 6647,
      "Ġindeed": 6648,
      "Ġrewarded": 6649,
      "Ġseparated": 6650,
      "Ġwidened": 6651,
      "Ġtravelled": 6652,
      "Ġmesmer": 6653,
      "Fin": 6654,
      "Ġdots": 6655,
      "Ġthird": 6656,
      "Ġnoon": 6657,
      "icked": 6658,
      "Ġmeals": 6659,
      "Ġhandful": 6660,
      "ĠPl": 6661,
      "ĠGet": 6662,
      "Ġsigned": 6663,
      "Ġwipes": 6664,
      "Ġhesitated": 6665,
      "ĠNothing": 6666,
      "Ġbehaved": 6667,
      "itched": 6668,
      "Ġcous": 6669,
      "iled": 6670,
      "Ġgobbled": 6671,
      "Ġroses": 6672,
      "ĠFarmer": 6673,
      "ÅĵDo": 6674,
      "ĠNick": 6675,
      "Ġpotion": 6676,
      "Ġneighbours": 6677,
      "Ġcowb": 6678,
      "Ġsalty": 6679,
      "Ġscrews": 6680,
      "Ġminerals": 6681,
      "May": 6682,
      "band": 6683,
      "rig": 6684,
      "eds": 6685,
      "ĠHoot": 6686,
      "igers": 6687,
      "ntil": 6688,
      "Ġwears": 6689,
      "Ġrefu": 6690,
      "Ġflapping": 6691,
      "using": 6692,
      "ĠEverybody": 6693,
      "aker": 6694,
      "Ġyells": 6695,
      "ments": 6696,
      "Ġkicks": 6697,
      "Ġshrinking": 6698,
      "Toby": 6699,
      "Ġvideos": 6700,
      "Ġforgiven": 6701,
      "Danny": 6702,
      "Time": 6703,
      "Ġaud": 6704,
      "ĠTara": 6705,
      "Ġonions": 6706,
      "Ġshirts": 6707,
      "ĠJazz": 6708,
      "Ġexperien": 6709,
      "Ġburst": 6710,
      "Ġornaments": 6711,
      "An": 6712,
      "Ġrising": 6713,
      "Ġbeam": 6714,
      "itted": 6715,
      "sequ": 6716,
      "ickey": 6717,
      "iece": 6718,
      "Ġslam": 6719,
      "Ġdrawn": 6720,
      "Ġamong": 6721,
      "Ġlighter": 6722,
      "Ġrequested": 6723,
      "ĠAmelia": 6724,
      "?'": 6725,
      "Ellie": 6726,
      "Milly": 6727,
      "Ġtangled": 6728,
      "Ġcoup": 6729,
      "ades": 6730,
      "Ġfact": 6731,
      "ept": 6732,
      "Ġbadge": 6733,
      "Ġconsequ": 6734,
      "Ġbeloved": 6735,
      "ĠKayla": 6736,
      "Ġknocks": 6737,
      "ded": 6738,
      "Ġcust": 6739,
      "Ġech": 6740,
      "ĠEl": 6741,
      "Ġswept": 6742,
      "Ġneedles": 6743,
      "ÅĵWow": 6744,
      "ĠPam": 6745,
      "umbling": 6746,
      "Bobo": 6747,
      "Ġclowns": 6748,
      "Ġgracefully": 6749,
      "Ġsnowballs": 6750,
      "eal": 6751,
      "jo": 6752,
      "ouch": 6753,
      "Ġkites": 6754,
      "ĠJacob": 6755,
      "Ġnoses": 6756,
      "Ġgrandp": 6757,
      "Ġwilling": 6758,
      "ĠJacky": 6759,
      "Ġblocking": 6760,
      "Ġprinting": 6761,
      "ĠDoggy": 6762,
      "Ġpointy": 6763,
      "Ġpassen": 6764,
      "Ġtunnels": 6765,
      "Ġcopy": 6766,
      "Ġcomplaining": 6767,
      "Ġcouple": 6768,
      "Ġcustom": 6769,
      "Ducky": 6770,
      "Run": 6771,
      "Ġdet": 6772,
      "atul": 6773,
      "igning": 6774,
      "ĠWatch": 6775,
      "ĠLi": 6776,
      "ĠPinky": 6777,
      "Ġperformance": 6778,
      "ronaut": 6779,
      "Ġstomped": 6780,
      "Ġincluding": 6781,
      "Ġastronaut": 6782,
      "iki": 6783,
      "Ġsiblings": 6784,
      "Ġconsequences": 6785,
      "Ġteased": 6786,
      "Ġpans": 6787,
      "Ġjackets": 6788,
      "Ġannoy": 6789,
      "Ġcenter": 6790,
      "Ġafford": 6791,
      "Ġgrandpare": 6792,
      "Ġcor": 6793,
      "ans": 6794,
      "llen": 6795,
      "Ġarr": 6796,
      "Ġhandsome": 6797,
      "Ġchoices": 6798,
      "Ġforgetting": 6799,
      "Ġdrums": 6800,
      "Ġtiptoed": 6801,
      "Ġaudience": 6802,
      "Dan": 6803,
      "Wh": 6804,
      "aa": 6805,
      "ky": 6806,
      "atur": 6807,
      "obody": 6808,
      "ĠPandy": 6809,
      "ĠwonÃ¢": 6810,
      "Ġplans": 6811,
      "ĠFlopsy": 6812,
      "Ġsource": 6813,
      "Ġscratches": 6814,
      "Ġsurroundings": 6815,
      "Ġstroked": 6816,
      "rigued": 6817,
      "Ew": 6818,
      "Tina": 6819,
      "aired": 6820,
      "tuce": 6821,
      "Ġhus": 6822,
      "Ġhour": 6823,
      "Ġmast": 6824,
      "ados": 6825,
      "Ġcond": 6826,
      "ĠFido": 6827,
      "Ġpeppers": 6828,
      "Those": 6829,
      "Ġlettuce": 6830,
      "Ġcreations": 6831,
      "Ġrule": 6832,
      "Ġpeacefully": 6833,
      "Ġspoonful": 6834,
      "Ġwrapping": 6835,
      "Ġrepaired": 6836,
      "Ġwraps": 6837,
      "Ġavocados": 6838,
      "Ġpoems": 6839,
      "Ġgranted": 6840,
      "immering": 6841,
      "come": 6842,
      "mallow": 6843,
      "Ġtigers": 6844,
      "Ġlimes": 6845,
      "Ġropes": 6846,
      "Ġplayers": 6847,
      "Ġhelpers": 6848,
      "retty": 6849,
      "iley": 6850,
      "Ġbully": 6851,
      "Ġadult": 6852,
      "Ġwindy": 6853,
      "Ġzipping": 6854,
      "Ġbows": 6855,
      "Ġsnowmen": 6856,
      "Ġstarfish": 6857,
      "ĠOwl": 6858,
      "ivity": 6859,
      "Ġforks": 6860,
      "Ġavoid": 6861,
      "Ġhelmets": 6862,
      "arshmallow": 6863,
      "Ġtempt": 6864,
      "ĠRover": 6865,
      "Ġsports": 6866,
      "Ġwarnings": 6867,
      "Ġswimsuit": 6868,
      "Ġlungs": 6869,
      "Ġreass": 6870,
      "ĠMa": 6871,
      "Ġtramp": 6872,
      "ÅĵCome": 6873,
      "Ġremote": 6874,
      "Ġconcer": 6875,
      "Ġuns": 6876,
      "Ġheading": 6877,
      "Ġplanning": 6878,
      "Ġwishing": 6879,
      "Ġleaning": 6880,
      "Ġseconds": 6881,
      "Ġsprinkled": 6882,
      "Shh": 6883,
      "Ġtoddler": 6884,
      "By": 6885,
      "Ġrings": 6886,
      "ĠBessie": 6887,
      "ĠJune": 6888,
      "Ġfears": 6889,
      "Ġhider": 6890,
      "Ġsilent": 6891,
      "Ġcomplained": 6892,
      "ĠFox": 6893,
      "Ġhesitant": 6894,
      "ĠGoodbye": 6895,
      "ccoon": 6896,
      "Ġgreeted": 6897,
      "Ġdeserve": 6898,
      "Ġheavier": 6899,
      "Bad": 6900,
      "arrow": 6901,
      "river": 6902,
      "step": 6903,
      "Ġflas": 6904,
      "Ġgrabbing": 6905,
      "Ġtwice": 6906,
      "Ġraccoon": 6907,
      "Ġwarri": 6908,
      "ĠRemember": 6909,
      "Ġcreativity": 6910,
      "ĠWithout": 6911,
      "Ġspreading": 6912,
      "Ġborrowed": 6913,
      "Ġpumpkins": 6914,
      "Ġdesigned": 6915,
      "ĠOlive": 6916,
      "Maria": 6917,
      "ĠQuack": 6918,
      "Ġhusband": 6919,
      "Ġtrampoline": 6920,
      "Pat": 6921,
      "cl": 6922,
      "fall": 6923,
      "Ġmerry": 6924,
      "ĠSun": 6925,
      "esp": 6926,
      "Ġrus": 6927,
      "Ġskunk": 6928,
      "ÅĵHi": 6929,
      "ĠZoey": 6930,
      "Ġcuddly": 6931,
      "Ġinsects": 6932,
      "Ġfirefighter": 6933,
      "ĠTwo": 6934,
      "Great": 6935,
      "yes": 6936,
      "ĠQ": 6937,
      "Ġwins": 6938,
      "Ġbodies": 6939,
      "Ġspong": 6940,
      "Ġnapkins": 6941,
      "Ġimagining": 6942,
      "ĠZip": 6943,
      "Ġseeker": 6944,
      "ĠBluey": 6945,
      "Ġresisted": 6946,
      "ĠMouse": 6947,
      "Ġbackwards": 6948,
      "ongr": 6949,
      "Ġdollhouse": 6950,
      "Ġruining": 6951,
      "Ġslower": 6952,
      "anging": 6953,
      "Ġrecipe": 6954,
      "Ġgenie": 6955,
      "Ġdecorating": 6956,
      "Ġneatly": 6957,
      "ĠRobert": 6958,
      "Ġpuppies": 6959,
      "Ġdamage": 6960,
      "ĠSquirrel": 6961,
      "Nina": 6962,
      "weed": 6963,
      "Ġmer": 6964,
      "inger": 6965,
      "Ġnood": 6966,
      "ĠBinky": 6967,
      "ĠJudy": 6968,
      "Ġfeast": 6969,
      "Ġpeck": 6970,
      "Ġcrew": 6971,
      "ĠGreen": 6972,
      "ĠNina": 6973,
      "Ġsailors": 6974,
      "Ġtails": 6975,
      "Ġacting": 6976,
      "Ġaccomplishment": 6977,
      "Ġsquishy": 6978,
      "ongratul": 6979,
      "Nemo": 6980,
      "tier": 6981,
      "Ġgross": 6982,
      "anes": 6983,
      "ĠListen": 6984,
      "Ġprettier": 6985,
      "Ġsnowfl": 6986,
      "ĠZero": 6987,
      "Ġpraying": 6988,
      "Ġdelivering": 6989,
      "ÅĵYouÃ¢": 6990,
      "ĠFrog": 6991,
      "Ġfamiliar": 6992,
      "Clara": 6993,
      "Whee": 6994,
      "ael": 6995,
      "Ġtouc": 6996,
      "Ġsale": 6997,
      "Ġplucked": 6998,
      "Ġscamp": 6999,
      "ongo": 7000,
      "Ġworn": 7001,
      "plash": 7002,
      "ueen": 7003,
      "Ġwobbled": 7004,
      "Ġpromises": 7005,
      "ichael": 7006,
      "Ġexpress": 7007,
      "Ġbasement": 7008,
      "Ġwiggle": 7009,
      "Roar": 7010,
      "Ġsnuggle": 7011,
      "Ġsponge": 7012,
      "eese": 7013,
      "itude": 7014,
      "ĠTuna": 7015,
      "Ġsofter": 7016,
      "Ġspices": 7017,
      "ĠAng": 7018,
      "Ġcoc": 7019,
      "Ġpecked": 7020,
      "Ġthroughout": 7021,
      "Ġdropping": 7022,
      "Ġjoyful": 7023,
      "Meow": 7024,
      "Ġbreathed": 7025,
      "Tweety": 7026,
      "Ġguests": 7027,
      "Have": 7028,
      "iel": 7029,
      "Ġsan": 7030,
      "Ġwept": 7031,
      "choo": 7032,
      "child": 7033,
      "Ġneither": 7034,
      "ĠMira": 7035,
      "Ġalien": 7036,
      "Ġage": 7037,
      "ÅĵMy": 7038,
      "Ġconvers": 7039,
      "Ġseaweed": 7040,
      "Ġvanilla": 7041,
      "ĠUntil": 7042,
      "Ġgrandchild": 7043,
      "Ġenthusi": 7044,
      "Ġbuzzed": 7045,
      "ĠRobbie": 7046,
      "Ġconfl": 7047,
      "Ġincreased": 7048,
      "ably": 7049,
      "ĠQueen": 7050,
      "Baby": 7051,
      "lves": 7052,
      "erate": 7053,
      "Ġocc": 7054,
      "Ġrout": 7055,
      "ĠMickey": 7056,
      "Ġblast": 7057,
      "arac": 7058,
      "Ġdollars": 7059,
      "Ġthrown": 7060,
      "uggles": 7061,
      "ĠThanks": 7062,
      "Ġgasp": 7063,
      "Ġpostman": 7064,
      "Ġsurrendered": 7065,
      "Ġyielded": 7066,
      "Ġenthusiasm": 7067,
      "Br": 7068,
      "Tw": 7069,
      "iment": 7070,
      "Ġstain": 7071,
      "Ġstung": 7072,
      "Ġchos": 7073,
      "Ġexplo": 7074,
      "Ġhops": 7075,
      "Ġgrowls": 7076,
      "Ġignoring": 7077,
      "ĠSnuggles": 7078,
      "Ġmushrooms": 7079,
      "Ġcubes": 7080,
      "Ġrustling": 7081,
      "Ġfocused": 7082,
      "Ġchosen": 7083,
      "Boo": 7084,
      "Ġmarshmallow": 7085,
      "Ġgeese": 7086,
      "ĠSophia": 7087,
      "Ġthorn": 7088,
      "Ġstool": 7089,
      "Ġneare": 7090,
      "Ġleast": 7091,
      "Ġflight": 7092,
      "ĠEx": 7093,
      "Ġintrigued": 7094,
      "aura": 7095,
      "Ġexplorer": 7096,
      "Ġache": 7097,
      "athan": 7098,
      "Ġamount": 7099,
      "Ġshops": 7100,
      "Ġhopeful": 7101,
      "Ġmatters": 7102,
      "Ġhonked": 7103,
      "Ġpaths": 7104,
      "ertain": 7105,
      "Ġtoaster": 7106,
      "years": 7107,
      "Ġscraped": 7108,
      "Ġpassengers": 7109,
      "Fo": 7110,
      "Pe": 7111,
      "Surpr": 7112,
      "abby": 7113,
      "yan": 7114,
      "Ġplain": 7115,
      "allowed": 7116,
      "Ġswallowed": 7117,
      "Ġsmallest": 7118,
      "ĠRalph": 7119,
      "Ġcuriously": 7120,
      "Ġsails": 7121,
      "Ġrespond": 7122,
      "Ġlifting": 7123,
      "Ġbatteries": 7124,
      "Ġappreciation": 7125,
      "Ġwaddled": 7126,
      "Ruby": 7127,
      "while": 7128,
      "Ġais": 7129,
      "Ġdie": 7130,
      "ĠSque": 7131,
      "Ġspins": 7132,
      "Ġcharac": 7133,
      "Ġpuff": 7134,
      "ĠThose": 7135,
      "Ġdrawers": 7136,
      "Ġtalks": 7137,
      "Ġshaped": 7138,
      "Ġhealing": 7139,
      "Ġrespected": 7140,
      "Ġtested": 7141,
      "Ġsunflowers": 7142,
      "Ġencourag": 7143,
      "Ġtriangles": 7144,
      "Ġtrembled": 7145,
      "Ġwider": 7146,
      "Ġchefs": 7147,
      "ĠFriends": 7148,
      "Ġcousin": 7149,
      "Ġscampered": 7150,
      "Ġsank": 7151,
      "Ġcharacter": 7152,
      "Kim": 7153,
      "Yummy": 7154,
      "rey": 7155,
      "ition": 7156,
      "Ġnibb": 7157,
      "Ġkittens": 7158,
      "Ġglued": 7159,
      "Ġremembering": 7160,
      "Ġhides": 7161,
      "Ġstreets": 7162,
      "ĠOur": 7163,
      "ĠStella": 7164,
      "Ġcushions": 7165,
      "Ġsymbols": 7166,
      "Ġbehaving": 7167,
      "Blue": 7168,
      "Ġrushing": 7169,
      "cake": 7170,
      "unched": 7171,
      "ĠJax": 7172,
      "Ġscient": 7173,
      "Ġdads": 7174,
      "Ġtrot": 7175,
      "Ġgardener": 7176,
      "ÅĵNow": 7177,
      "Ġdances": 7178,
      "Ġwrink": 7179,
      "ĠRock": 7180,
      "Ġcausing": 7181,
      "ĠStan": 7182,
      "Ġfeeding": 7183,
      "Ġstudents": 7184,
      "Ġscrewd": 7185,
      "Ġproper": 7186,
      "Ġunsure": 7187,
      "Ġtouches": 7188,
      "Ġscientist": 7189,
      "Jul": 7190,
      "Lilly": 7191,
      "Tr": 7192,
      "Ġdod": 7193,
      "Ġscored": 7194,
      "Ġflown": 7195,
      "Ġdresser": 7196,
      "Ġcrashing": 7197,
      "Ġedges": 7198,
      "Quick": 7199,
      "ĠBirthday": 7200,
      "Ġfreedom": 7201,
      "--": 7202,
      "Back": 7203,
      "Even": 7204,
      "fire": 7205,
      "Ġdaring": 7206,
      "Ġnine": 7207,
      "Ġnotes": 7208,
      "Ġreason": 7209,
      "Ġmanag": 7210,
      "Ġposs": 7211,
      "emma": 7212,
      "ĠJoan": 7213,
      "Ġprove": 7214,
      "Ġcorners": 7215,
      "Ġwiping": 7216,
      "Ġtwisty": 7217,
      "Ġthud": 7218,
      "Ġrefreshing": 7219,
      "Ġfirmly": 7220,
      "Ġdefin": 7221,
      "Ġnoodles": 7222,
      "Ġscrewdriver": 7223,
      "During": 7224,
      "Sadly": 7225,
      "Ġtuck": 7226,
      "Ġsy": 7227,
      "Ġmunch": 7228,
      "Ġoh": 7229,
      "stick": 7230,
      "endy": 7231,
      "aula": 7232,
      "Ġadults": 7233,
      "Ġfinal": 7234,
      "Ġfinishing": 7235,
      "acles": 7236,
      "Ġnearly": 7237,
      "Ġstrongest": 7238,
      "ĠNobody": 7239,
      "Ġdived": 7240,
      "Ġcrossing": 7241,
      "Ġheroes": 7242,
      "Ġswans": 7243,
      "Ġperforming": 7244,
      "Ġsurfing": 7245,
      "Ġzebras": 7246,
      "Ġsuperheroes": 7247,
      "Ġmarshmallows": 7248,
      "Jerry": 7249,
      "Ġcoral": 7250,
      "Ġmoo": 7251,
      "Ġsadd": 7252,
      "Ġonward": 7253,
      "ĠBongo": 7254,
      "Ġspikes": 7255,
      "Ġswords": 7256,
      "Ġposter": 7257,
      "ĠCra": 7258,
      "Ġwobbly": 7259,
      "Ġdefe": 7260,
      "Ġchopped": 7261,
      "Ġjoining": 7262,
      "Ġforgets": 7263,
      "Ġexamining": 7264,
      "Ġsuggestion": 7265,
      "Ġsneezing": 7266,
      "Ġsurfboard": 7267,
      "Ġsuffered": 7268,
      "Su": 7269,
      "Woof": 7270,
      "eel": 7271,
      "fia": 7272,
      "Ġaimed": 7273,
      "Ġfaded": 7274,
      "Ġmaster": 7275,
      "Ġpens": 7276,
      "aying": 7277,
      "Ġgest": 7278,
      "Ġreun": 7279,
      "Ġroars": 7280,
      "Ġcosy": 7281,
      "ÅĵWell": 7282,
      "ĠJaney": 7283,
      "Ġmagician": 7284,
      "Ġsteady": 7285,
      "Ġperformed": 7286,
      "Ġtables": 7287,
      "Steve": 7288,
      "Ġbells": 7289,
      "Ġcoop": 7290,
      "Ġfishes": 7291,
      "Ġpresses": 7292,
      "Ġsqueak": 7293,
      "Ġfirefly": 7294,
      "ĠLouise": 7295,
      "Ġreflection": 7296,
      "Ġdefinitely": 7297,
      "Ġwag": 7298,
      "ĠTake": 7299,
      "ĠSc": 7300,
      "imon": 7301,
      "cky": 7302,
      "sty": 7303,
      "Ġplaytime": 7304,
      "idey": 7305,
      "ĠWally": 7306,
      "Ġsled": 7307,
      "Ġraces": 7308,
      "Ġsending": 7309,
      "Ġmesmerized": 7310,
      "Ġencouraging": 7311,
      "Miss": 7312,
      "Oops": 7313,
      "hew": 7314,
      "Ġcertain": 7315,
      "Ġdip": 7316,
      "Ġgears": 7317,
      "ening": 7318,
      "anwhile": 7319,
      "lle": 7320,
      "Ġshown": 7321,
      "Ġscen": 7322,
      "ĠElly": 7323,
      "Ġbravest": 7324,
      "Whenever": 7325,
      "Ġcolder": 7326,
      "ounce": 7327,
      "attered": 7328,
      "Ġloading": 7329,
      "Ġburying": 7330,
      "ĠBirdy": 7331,
      "Ġslammed": 7332,
      "Ġechoed": 7333,
      "Ġwarrior": 7334,
      "espite": 7335,
      "Ġfant": 7336,
      "Ġhen": 7337,
      "onse": 7338,
      "onna": 7339,
      "Ġinj": 7340,
      "Ġease": 7341,
      "Ġund": 7342,
      "Ġplayroom": 7343,
      "ugs": 7344,
      "Ġcharge": 7345,
      "roken": 7346,
      "ĠFuzzy": 7347,
      "Ġslips": 7348,
      "otten": 7349,
      "Ġfits": 7350,
      "Ġresponse": 7351,
      "ĠStay": 7352,
      "Ġnecklaces": 7353,
      "Ġdesigns": 7354,
      "Ġpreparing": 7355,
      "Ġefforts": 7356,
      "Ġpupils": 7357,
      "Ġtravelling": 7358,
      "Frank": 7359,
      "Ġoccas": 7360,
      "Ġfantastic": 7361,
      "Like": 7362,
      "Ġtossed": 7363,
      "Ġgonna": 7364,
      "elvet": 7365,
      "Ġbraver": 7366,
      "Ġmonths": 7367,
      "Ġlessons": 7368,
      "ĠKelly": 7369,
      "Ġbaths": 7370,
      "Ġstands": 7371,
      "Ġbaskets": 7372,
      "Ġlifts": 7373,
      "Ġpuzzled": 7374,
      "ĠAlthough": 7375,
      "Ġpays": 7376,
      "Ġawo": 7377,
      "Ġsuits": 7378,
      "Ġgrandd": 7379,
      "Ġstacked": 7380,
      "Ġresults": 7381,
      "Ġpunishment": 7382,
      "Ġleapt": 7383,
      "ĠAshley": 7384,
      "Ġgrandparents": 7385,
      "Ġmate": 7386,
      "Ġpours": 7387,
      "Ġnapping": 7388,
      "Ġnuzz": 7389,
      "onies": 7390,
      "lets": 7391,
      "Ġev": 7392,
      "Ġearn": 7393,
      "Ġrotten": 7394,
      "rian": 7395,
      "chy": 7396,
      "Ġaside": 7397,
      "ĠWell": 7398,
      "Ġchanging": 7399,
      "Ġrainy": 7400,
      "Ġduckling": 7401,
      "ĠThatÃ¢": 7402,
      "Ġantic": 7403,
      "ĠUnder": 7404,
      "Ġhumans": 7405,
      "Ġlending": 7406,
      "Ġlicking": 7407,
      "ĠQuick": 7408,
      "Car": 7409,
      "Very": 7410,
      "found": 7411,
      "Ġstitches": 7412,
      "Ġbelts": 7413,
      "Ġtablet": 7414,
      "Ġdrivers": 7415,
      "Ġaction": 7416,
      "Ġnervously": 7417,
      "Ġfrowning": 7418,
      "Ġstreamers": 7419,
      "Ġcampfire": 7420,
      "Ġtwinkled": 7421,
      "Ġsewed": 7422,
      "Ġdespite": 7423,
      "Ġ10": 7424,
      "Ġrobber": 7425,
      "Ġconnected": 7426,
      "Ġarranged": 7427,
      "Ġconflict": 7428,
      "Rachel": 7429,
      "mates": 7430,
      "ĠX": 7431,
      "rect": 7432,
      "Ġponies": 7433,
      "ĠSw": 7434,
      "Ġelf": 7435,
      "unity": 7436,
      "ĠMabel": 7437,
      "fus": 7438,
      "nap": 7439,
      "Ġtapped": 7440,
      "Ġwaterfall": 7441,
      "Ġwobble": 7442,
      "Ġwrigg": 7443,
      "Ġpolar": 7444,
      "meal": 7445,
      "Ġpennies": 7446,
      "Ġtidied": 7447,
      "Ġpanicked": 7448,
      "Ġwhispers": 7449,
      "ĠUp": 7450,
      "ĠFinn": 7451,
      "Ġoatmeal": 7452,
      "Ġcorrect": 7453,
      "Tony": 7454,
      "now": 7455,
      "Ġ2": 7456,
      "Ġcongratul": 7457,
      "ĠHolly": 7458,
      "utter": 7459,
      "adie": 7460,
      "ĠSpidey": 7461,
      "Ġwarmer": 7462,
      "Ġblocked": 7463,
      "Ġpolitely": 7464,
      "Ġmailed": 7465,
      "Ġbattle": 7466,
      "ĠStitch": 7467,
      "Ġappreciated": 7468,
      "Ġwhispering": 7469,
      "Ġflavors": 7470,
      "Ġbehavior": 7471,
      "Ġreunited": 7472,
      "Bill": 7473,
      "bage": 7474,
      "bird": 7475,
      "Ġwoof": 7476,
      "innie": 7477,
      "Ġnewfound": 7478,
      "Ġwhose": 7479,
      "ĠDr": 7480,
      "Ġovercome": 7481,
      "Ġsurprising": 7482,
      "Ġtoward": 7483,
      "Ġforests": 7484,
      "Ġcollap": 7485,
      "Ġgarbage": 7486,
      "Ġleads": 7487,
      "Ġotters": 7488,
      "Ġreversed": 7489,
      "rrr": 7490,
      "ĠGranny": 7491,
      "Ġmasterp": 7492,
      "Jamie": 7493,
      "broken": 7494,
      "eedy": 7495,
      "munk": 7496,
      "sers": 7497,
      "Ġtying": 7498,
      "erm": 7499,
      "Ġnur": 7500,
      "ooking": 7501,
      "ighing": 7502,
      "ĠBee": 7503,
      "Ġbru": 7504,
      "Ġprob": 7505,
      "ection": 7506,
      "Ġcleaner": 7507,
      "ĠPr": 7508,
      "Ġdisob": 7509,
      "Ġsweetest": 7510,
      "Ġcalmly": 7511,
      "Ġdriveway": 7512,
      "Ġmaterial": 7513,
      "Ġcottage": 7514,
      "Ġevil": 7515,
      "Ġprobably": 7516,
      "Our": 7517,
      "Since": 7518,
      "Ġsou": 7519,
      "Ġwakes": 7520,
      "Ġpins": 7521,
      "ĠSmo": 7522,
      "ppies": 7523,
      "ĠthatÃ¢": 7524,
      "ĠLove": 7525,
      "Ġsnort": 7526,
      "Ġteles": 7527,
      "ÅĵOf": 7528,
      "Ġstopping": 7529,
      "Ġrains": 7530,
      "Ġbits": 7531,
      "ĠKaren": 7532,
      "Ġdistract": 7533,
      "ounced": 7534,
      "Ġpops": 7535,
      "Ġlaying": 7536,
      "Ġluckily": 7537,
      "Ġscurry": 7538,
      "ĠElsa": 7539,
      "ĠPippin": 7540,
      "Ġmerma": 7541,
      "Follow": 7542,
      "ĠSqueaky": 7543,
      "Ġawoke": 7544,
      "Ġtelescope": 7545,
      "?!\"": 7546,
      "Ros": 7547,
      "crow": 7548,
      "whe": 7549,
      "Ġheight": 7550,
      "veral": 7551,
      "ading": 7552,
      "Ġseveral": 7553,
      "Ġspook": 7554,
      "ĠFire": 7555,
      "Ġwatering": 7556,
      "Ġoffic": 7557,
      "Ġbeautifully": 7558,
      "ÅĵThe": 7559,
      "ĠPet": 7560,
      "TMd": 7561,
      "Ġbelieving": 7562,
      "Ġaddress": 7563,
      "Ġrisks": 7564,
      "Ġanticip": 7565,
      "mered": 7566,
      "Ġtiss": 7567,
      "Ġlent": 7568,
      "Ġmaker": 7569,
      "ĠMichael": 7570,
      "ÅĵMom": 7571,
      "Ġconqu": 7572,
      "Ġunderstands": 7573,
      "ĠKiki": 7574,
      "Ġsparks": 7575,
      "Ġcloudy": 7576,
      "Ġplanting": 7577,
      "ĠOnly": 7578,
      "Ġscram": 7579,
      "Ġseller": 7580,
      "ĠDavey": 7581,
      "Ġtravels": 7582,
      "Ġartwork": 7583,
      "Ġcobwebs": 7584,
      "ĠMeg": 7585,
      "Ġseashells": 7586,
      "Ġconversation": 7587,
      "Ġspooky": 7588,
      "cher": 7589,
      "upt": 7590,
      "wise": 7591,
      "worm": 7592,
      "Ġgap": 7593,
      "Ġsoaking": 7594,
      "ĠgirlÃ¢": 7595,
      "Ġcoach": 7596,
      "ĠLaura": 7597,
      "Ġposit": 7598,
      "Ġthoughts": 7599,
      "Ġslither": 7600,
      "Ġuntie": 7601,
      "Ġtricycle": 7602,
      "Ġworrying": 7603,
      "Ġcraft": 7604,
      "Ġgrows": 7605,
      "Ġvegg": 7606,
      "Ġheartbroken": 7607,
      "Ġmints": 7608,
      "ĠAlong": 7609,
      "Ġtires": 7610,
      "Ġoysters": 7611,
      "azing": 7612,
      "Ġloops": 7613,
      "Ġinsisting": 7614,
      "Ġrotting": 7615,
      "Ġadmiration": 7616,
      "Ġbrushing": 7617,
      "Ġcongratulated": 7618,
      "Abigail": 7619,
      "Beth": 7620,
      "Penny": 7621,
      "aven": 7622,
      "cent": 7623,
      "Ġtar": 7624,
      "Ġaim": 7625,
      "Ġsill": 7626,
      "ĠTry": 7627,
      "idence": 7628,
      "Ġni": 7629,
      "rier": 7630,
      "Ġshady": 7631,
      "Ġanger": 7632,
      "Ġpoppies": 7633,
      "bbling": 7634,
      "ĠJojo": 7635,
      "ÅĵOkay": 7636,
      "ÅĵWhere": 7637,
      "Ġbusiness": 7638,
      "Ġfills": 7639,
      "Ġtighter": 7640,
      "Ġsniffs": 7641,
      "Ġpermitted": 7642,
      "Ġpurr": 7643,
      "Ġdiscussing": 7644,
      "Ġresponsib": 7645,
      "Ġdamaged": 7646,
      "Ġforgiving": 7647,
      "Ġchipmunk": 7648,
      "Ġconduct": 7649,
      "Surprise": 7650,
      "Ġmasterpiece": 7651,
      "Ġanticipation": 7652,
      "Adam": 7653,
      "Mad": 7654,
      "isions": 7655,
      "anie": 7656,
      "Ġshoo": 7657,
      "Ġreapp": 7658,
      "Ġexcept": 7659,
      "Ġmemb": 7660,
      "âĤ¬,": 7661,
      "ĠLena": 7662,
      "Ġgoodby": 7663,
      "Ġdoorway": 7664,
      "ĠGary": 7665,
      "Ġbiting": 7666,
      "Ġbelongings": 7667,
      "Ġsurv": 7668,
      "Ġchocolates": 7669,
      "Ġapologised": 7670,
      "Ġdiamonds": 7671,
      "Ġrepeating": 7672,
      "Ġbreathing": 7673,
      "Ġtubes": 7674,
      "ĠVelvet": 7675,
      "Ġpuppet": 7676,
      "citedly": 7677,
      "ĠAngel": 7678,
      "Ġtrotted": 7679,
      "eeling": 7680,
      "Ġveggies": 7681,
      "Ġmembers": 7682,
      "bi": 7683,
      "sm": 7684,
      "Ġmood": 7685,
      "ammy": 7686,
      "ĠIm": 7687,
      "elie": 7688,
      "ĠBow": 7689,
      "Ġknots": 7690,
      "Ġalthough": 7691,
      "Ġflips": 7692,
      "Ġqui": 7693,
      "asty": 7694,
      "Ġcounts": 7695,
      "Ġreminding": 7696,
      "Ġwisely": 7697,
      "Ġcovering": 7698,
      "Ġsniffing": 7699,
      "ĠPatty": 7700,
      "Ġspells": 7701,
      "Ġsqueaked": 7702,
      "Ġvehicles": 7703,
      "Ġsewing": 7704,
      "Ġaccomplished": 7705,
      "ĠMartha": 7706,
      "Ġcowboy": 7707,
      "Ġrefuse": 7708,
      "Ġcocoon": 7709,
      "Ġscrambled": 7710,
      "Ġconductor": 7711,
      "Ġgoodbyes": 7712,
      "pes": 7713,
      "please": 7714,
      "rup": 7715,
      "vant": 7716,
      "Ġdot": 7717,
      "Ġpound": 7718,
      "isc": 7719,
      "ĠSplash": 7720,
      "ĠHallow": 7721,
      "ĠHelen": 7722,
      "Ġyel": 7723,
      "Ġstumble": 7724,
      "ĠWendy": 7725,
      "Ġdecisions": 7726,
      "Ġblinking": 7727,
      "Ġcleared": 7728,
      "ĠCle": 7729,
      "Ġfins": 7730,
      "Ġunw": 7731,
      "acy": 7732,
      "ĠRyan": 7733,
      "Ġsmelling": 7734,
      "Ġpackages": 7735,
      "ÅĵIf": 7736,
      "ĠStar": 7737,
      "Ġpleaded": 7738,
      "Ġtrusting": 7739,
      "undred": 7740,
      "ĠFreddie": 7741,
      "Ġpigeons": 7742,
      "Ġshovels": 7743,
      "manda": 7744,
      "Ġexercises": 7745,
      "Ġquarreling": 7746,
      "Ġpassports": 7747,
      "Ġwiggly": 7748,
      "ĠFroggy": 7749,
      "Ġmermaid": 7750,
      "Ġquieter": 7751,
      "ĠHalloween": 7752,
      "Hannah": 7753,
      "Mimi": 7754,
      "but": 7755,
      "dress": 7756,
      "line": 7757,
      "its": 7758,
      "Ġgerm": 7759,
      "Ġgazing": 7760,
      "ĠMag": 7761,
      "ĠAny": 7762,
      "ighting": 7763,
      "Ġflick": 7764,
      "Ġvines": 7765,
      "antha": 7766,
      "Ġslipping": 7767,
      "Ġhanding": 7768,
      "ĠPin": 7769,
      "Ġsquir": 7770,
      "ĠNana": 7771,
      "Ġhairdress": 7772,
      "Ġvisitor": 7773,
      "Ġteachers": 7774,
      "Ġimages": 7775,
      "Ġhonking": 7776,
      "Ġshrunk": 7777,
      "Ġsolving": 7778,
      "Ġprayers": 7779,
      "Ġfigures": 7780,
      "illiam": 7781,
      "Ġcuddles": 7782,
      "Ġpedaled": 7783,
      "...\"": 7784,
      "Ġannoyed": 7785,
      "Ġreassured": 7786,
      "Ġsyrup": 7787,
      "Ġgesture": 7788,
      "Ġtarget": 7789,
      "Ġyelped": 7790,
      "Listen": 7791,
      "father": 7792,
      "vroom": 7793,
      "rew": 7794,
      "Ġcoug": 7795,
      "Ġrin": 7796,
      "Ġlasers": 7797,
      "Ġdecl": 7798,
      "Ġgoodies": 7799,
      "Ġflip": 7800,
      "Ġthanking": 7801,
      "iona": 7802,
      "Ġjoked": 7803,
      "ilda": 7804,
      "ÅĵBut": 7805,
      "Ġdangers": 7806,
      "ĠGina": 7807,
      "ĠSpeedy": 7808,
      "Ġpaintbrush": 7809,
      "Ġbandages": 7810,
      "Ġgenerosity": 7811,
      "Ġsqueezing": 7812,
      "Ġdiscoveries": 7813,
      "ĠMikey": 7814,
      "Ġspeeding": 7815,
      "Ġdisturbing": 7816,
      "ĠSnowman": 7817,
      "Ġemerged": 7818,
      "belle": 7819,
      "Ġexperienced": 7820,
      "Je": 7821,
      "Ġtumbled": 7822,
      "Ġdump": 7823,
      "Ġnasty": 7824,
      "ĠSl": 7825,
      "str": 7826,
      "Ġspat": 7827,
      "inkle": 7828,
      "Ġuntied": 7829,
      "Ġconvin": 7830,
      "Ġwarmly": 7831,
      "ĠRain": 7832,
      "Ġafar": 7833,
      "ĠAli": 7834,
      "ĠZara": 7835,
      "Ġtwisting": 7836,
      "Ġbracelets": 7837,
      "Tweetie": 7838,
      "asmine": 7839,
      "Ġtype": 7840,
      "Ġinstruments": 7841,
      "Ġconcert": 7842,
      "steps": 7843,
      "Ġhairdresser": 7844,
      "Bet": 7845,
      "Joy": 7846,
      "cie": 7847,
      "da": 7848,
      "gain": 7849,
      "ware": 7850,
      "Ġties": 7851,
      "order": 7852,
      "Ġrays": 7853,
      "Ġweeds": 7854,
      "ĠBecause": 7855,
      "Ġscent": 7856,
      "Ġchilly": 7857,
      "ĠSofia": 7858,
      "Ġcheers": 7859,
      "ctric": 7860,
      "Ġstored": 7861,
      "acle": 7862,
      "Ġdressing": 7863,
      "Ġpresented": 7864,
      "Ġguessing": 7865,
      "Ġargum": 7866,
      "Ġscooters": 7867,
      "Ġsupported": 7868,
      "Ġstomp": 7869,
      "Ġincreasing": 7870,
      "Ġuniforms": 7871,
      "Ġsuffering": 7872,
      "intment": 7873,
      "ĠElsie": 7874,
      "Ġinspired": 7875,
      "Ġforgiveness": 7876,
      "Ġsnowflakes": 7877,
      "Ġnearest": 7878,
      "Ġaisle": 7879,
      "Ġnibbled": 7880,
      "Ġwrinkled": 7881,
      "Ġofficers": 7882,
      "Jess": 7883,
      "Mine": 7884,
      "mies": 7885,
      "pit": 7886,
      "Ġtipped": 7887,
      "ilities": 7888,
      "ĠHoney": 7889,
      "Ġrather": 7890,
      "Ġforce": 7891,
      "Ġflock": 7892,
      "ĠDin": 7893,
      "Ġtrans": 7894,
      "ÅĵHey": 7895,
      "ÅĵPlease": 7896,
      "Ġcons": 7897,
      "Ġunfortunately": 7898,
      "ĠNan": 7899,
      "ĠRay": 7900,
      "issa": 7901,
      "Ġjud": 7902,
      "Ġmarve": 7903,
      "Ġfoxes": 7904,
      "Ġbeeh": 7905,
      "Ġfootsteps": 7906,
      "Ġtoolbox": 7907,
      "Ġrobots": 7908,
      "ĠZoomy": 7909,
      "Ġangels": 7910,
      "Always": 7911,
      "Ġscarecrow": 7912,
      "Ġshorts": 7913,
      "Ġconfidence": 7914,
      "Ġdelayed": 7915,
      "ĠFrosty": 7916,
      "ĠClaus": 7917,
      "Ġswayed": 7918,
      "Ġseagulls": 7919,
      "Ġopport": 7920,
      "Ġoppos": 7921,
      "what": 7922,
      "Ġhundred": 7923,
      "ĠTiger": 7924,
      "ĠIzzy": 7925,
      "Ġwithin": 7926,
      "Ġmanners": 7927,
      "Ġtreated": 7928,
      "ÅĵGood": 7929,
      "Ġswimmer": 7930,
      "Ġcupcake": 7931,
      "ĠFlo": 7932,
      "ordinary": 7933,
      "ails": 7934,
      "ĠOther": 7935,
      "Ġhumming": 7936,
      "Ġfrowns": 7937,
      "Ġsharks": 7938,
      "Ġwealth": 7939,
      "Ġsweat": 7940,
      "Ġgrandson": 7941,
      "Ġgrandfather": 7942,
      "Chloe": 7943,
      "Ġstroke": 7944,
      "Anne": 7945,
      "Ġactivity": 7946,
      "Ġencouragement": 7947,
      "ĠChris": 7948,
      "Ġcotton": 7949,
      "Ġroutine": 7950,
      "Ġgranddaughter": 7951,
      "Ġtissue": 7952,
      "Each": 7953,
      "Ralph": 7954,
      "Watch": 7955,
      "even": 7956,
      "ibbit": 7957,
      "Ġting": 7958,
      "Ġtoss": 7959,
      "Ġsav": 7960,
      "Ġshall": 7961,
      "Ġjars": 7962,
      "artled": 7963,
      "Ġwhoever": 7964,
      "ĠLion": 7965,
      "Ġquilt": 7966,
      "Ġsquished": 7967,
      "Ġelectric": 7968,
      "Ġextraordinary": 7969,
      "Ġtoothbrush": 7970,
      "Ġsimply": 7971,
      "Ġspills": 7972,
      "Ġpeeled": 7973,
      "Ġresponded": 7974,
      "Ġmanager": 7975,
      "iscuit": 7976,
      "Ġopposite": 7977,
      "Am": 7978,
      "Bunny": 7979,
      "Out": 7980,
      "Rob": 7981,
      "Ted": 7982,
      "bank": 7983,
      "ilted": 7984,
      "Ġsmashed": 7985,
      "Ġjugg": 7986,
      "Ġexch": 7987,
      "Ġclues": 7988,
      "ĠElle": 7989,
      "Ġswo": 7990,
      "ĠFighting": 7991,
      "Ġtweet": 7992,
      "Ġjoins": 7993,
      "Ġwinding": 7994,
      "sol": 7995,
      "Ġtasting": 7996,
      "Ġdecoration": 7997,
      "Ġteams": 7998,
      "Meanwhile": 7999,
      "Ġsteering": 8000,
      "Ġcharacters": 8001,
      "Ġnuzzled": 8002,
      "Ġscurrying": 8003,
      "Karen": 8004,
      "Mat": 8005,
      "Take": 8006,
      "hil": 8007,
      "we": 8008,
      "Ġbou": 8009,
      "ĠTaking": 8010,
      "ats": 8011,
      "ĠSimon": 8012,
      "onnie": 8013,
      "Ġbeating": 8014,
      "lyn": 8015,
      "Ġsped": 8016,
      "ĠAva": 8017,
      "ĠWelcome": 8018,
      "quet": 8019,
      "Ġblond": 8020,
      "ĠDespite": 8021,
      "Ġtwenty": 8022,
      "Ġfond": 8023,
      "Ġgardens": 8024,
      "Ġraising": 8025,
      "Ġhardest": 8026,
      "ÅĵWho": 8027,
      "Ġdrown": 8028,
      "Ġdripping": 8029,
      "ugging": 8030,
      "Ġpurpose": 8031,
      "Ġprick": 8032,
      "Ġtentacles": 8033,
      "Ġaware": 8034,
      "Ġsweep": 8035,
      "Ġsweaty": 8036,
      "ĠDaniel": 8037,
      "Ġswaying": 8038,
      "Ġbeaming": 8039,
      "Ġcustomers": 8040,
      "Rosie": 8041,
      "Ġbeehive": 8042,
      "Ġswollen": 8043,
      "Any": 8044,
      "Get": 8045,
      "Tilly": 8046,
      "pen": 8047,
      "ĠOkay": 8048,
      "rest": 8049,
      "Ġgrip": 8050,
      "oration": 8051,
      "Ġramp": 8052,
      "Ġstall": 8053,
      "Ġrely": 8054,
      "Ġbirdhouse": 8055,
      "Ġflipped": 8056,
      "ortunately": 8057,
      "empt": 8058,
      "ĠJoanna": 8059,
      "bee": 8060,
      "ĠGinger": 8061,
      "Ġdisc": 8062,
      "Ġslowed": 8063,
      "spe": 8064,
      "Ġvisits": 8065,
      "Ġjobs": 8066,
      "Ġattempt": 8067,
      "Ġnests": 8068,
      "Ġstorms": 8069,
      "Ġreminds": 8070,
      "Ġmagnif": 8071,
      "Ġencount": 8072,
      "Ġstatues": 8073,
      "Ġmillion": 8074,
      "Ġrepairman": 8075,
      "Ġdisplayed": 8076,
      "Ġnovels": 8077,
      "Ġbothering": 8078,
      "ĠLibby": 8079,
      "Two": 8080,
      "Ġcollapsed": 8081,
      "Ġdeclared": 8082,
      "Ġtransf": 8083,
      "Ġbouquet": 8084,
      "Dear": 8085,
      "Mon": 8086,
      "emy": 8087,
      "oor": 8088,
      "Ġhoo": 8089,
      "Ġdep": 8090,
      "orter": 8091,
      "Ġyumm": 8092,
      "Ġsoot": 8093,
      "storm": 8094,
      "Ġform": 8095,
      "Ġshimmering": 8096,
      "Ġkings": 8097,
      "Ġloc": 8098,
      "Ġnodd": 8099,
      "Ġchanges": 8100,
      "Ġenemy": 8101,
      "Ġwaters": 8102,
      "Ġends": 8103,
      "Ġsnug": 8104,
      "Ġglob": 8105,
      "Ġnights": 8106,
      "ĠRu": 8107,
      "Ġcomforting": 8108,
      "Ġtidying": 8109,
      "Ġrelaxing": 8110,
      "Ġcrowns": 8111,
      "Ġclearly": 8112,
      "Ġquestioned": 8113,
      "Ġlipstick": 8114,
      "Ġmagazines": 8115,
      "Ġinchworm": 8116,
      "Ġflashing": 8117,
      "Ġgerms": 8118,
      "Ġconsid": 8119,
      "Ġglobe": 8120,
      "Boys": 8121,
      "uel": 8122,
      "Ġdarl": 8123,
      "atitude": 8124,
      "ances": 8125,
      "rie": 8126,
      "Ġlies": 8127,
      "ended": 8128,
      "ĠAbi": 8129,
      "romise": 8130,
      "Ġgratitude": 8131,
      "ĠPaula": 8132,
      "athy": 8133,
      "Ġguide": 8134,
      "Ġexpert": 8135,
      "Ġself": 8136,
      "Ġpizzas": 8137,
      "Beep": 8138,
      "Ġcamel": 8139,
      "Ġwindowsill": 8140,
      "Ġvibr": 8141,
      "Ġmosquitoes": 8142,
      "Ġmeowing": 8143,
      "Ġfocus": 8144,
      "ĠPippa": 8145,
      "Ġthorns": 8146,
      "ĠJoanne": 8147,
      "Ġargument": 8148,
      "Ġdarlings": 8149,
      "Cindy": 8150,
      "Too": 8151,
      "ae": 8152,
      "hind": 8153,
      "ulp": 8154,
      "Ġbitten": 8155,
      "Ġwasting": 8156,
      "Ġuna": 8157,
      "ppa": 8158,
      "ĠmomÃ¢": 8159,
      "ĠBrian": 8160,
      "Ġsculp": 8161,
      "ift": 8162,
      "ĠLooking": 8163,
      "Ġtearing": 8164,
      "ĠCurious": 8165,
      "ÅĵSee": 8166,
      "Ġdoorbell": 8167,
      "ĠSpring": 8168,
      "Ġmovements": 8169,
      "Ġriverbank": 8170,
      "Ġsmoking": 8171,
      "Ġpicnics": 8172,
      "ĠAlan": 8173,
      "Ġsoapy": 8174,
      "Ġturtles": 8175,
      "Ġenviron": 8176,
      "Ġbeeped": 8177,
      "Ġprevented": 8178,
      "Ġobeyed": 8179,
      "Ġglittering": 8180,
      "Ġclicked": 8181,
      "Ġattacked": 8182,
      "Ġexpression": 8183,
      "Julie": 8184,
      "Ġmunching": 8185,
      "Ġsadder": 8186,
      "Ġcorrectly": 8187,
      "Ġconvinced": 8188,
      "Ġenvironment": 8189,
      "Mira": 8190,
      "earing": 8191,
      "po": 8192,
      "Ġtumm": 8193,
      "ering": 8194,
      "Ġheaven": 8195,
      "ĠSatur": 8196,
      "Ġrowed": 8197,
      "ĠBarry": 8198,
      "ĠMother": 8199,
      "Ġloses": 8200,
      "Ġscri": 8201,
      "ĠEva": 8202,
      "ĠDory": 8203,
      "anted": 8204,
      "Ġbrains": 8205,
      "Yesterday": 8206,
      "ÅĵSure": 8207,
      "ĠPretty": 8208,
      "ipes": 8209,
      "LetÃ¢": 8210,
      "Ġbrightest": 8211,
      "Ġsquaw": 8212,
      "Ġsandpit": 8213,
      "uffin": 8214,
      "Ġsprout": 8215,
      "Ġwhistles": 8216,
      "Ġgiggles": 8217,
      "Ġminds": 8218,
      "Ġbanged": 8219,
      "Ġcheaper": 8220,
      "Ġlanguages": 8221,
      "Ġsprinkle": 8222,
      "Ġbothered": 8223,
      "Ġpurrs": 8224,
      "Ġinstrument": 8225,
      "Ġnurses": 8226,
      "Ġnibble": 8227,
      "Ġsurvive": 8228,
      "Ġencountered": 8229,
      "Ġtummies": 8230,
      "ĠSaturday": 8231,
      "Ol": 8232,
      "rily": 8233,
      "water": 8234,
      "Ġgall": 8235,
      "ĠSnap": 8236,
      "ĠMina": 8237,
      "ĠAna": 8238,
      "aret": 8239,
      "Ġfailed": 8240,
      "Ġswitched": 8241,
      "usty": 8242,
      "Ġcares": 8243,
      "ĠMomma": 8244,
      "ĠCara": 8245,
      "ĠRavi": 8246,
      "Ġparted": 8247,
      "boards": 8248,
      "Ġvisitors": 8249,
      "Ġcaw": 8250,
      "Ġdesigning": 8251,
      "Goodnight": 8252,
      "Ġrecorder": 8253,
      "Ġclassmates": 8254,
      "Ġships": 8255,
      "Ġcracks": 8256,
      "Ġcheckout": 8257,
      "Ġpepperoni": 8258,
      "ĠRoger": 8259,
      "Leave": 8260,
      "ĠJean": 8261,
      "ĠKevin": 8262,
      "Ġoutfits": 8263,
      "ĠJonny": 8264,
      "Ġastronauts": 8265,
      "Ġexploded": 8266,
      "ĠCrabby": 8267,
      "Bang": 8268,
      "Liz": 8269,
      "opper": 8270,
      "val": 8271,
      "Ġtin": 8272,
      "Ġbuddy": 8273,
      "ative": 8274,
      "ĠShelly": 8275,
      "Ġsheets": 8276,
      "elope": 8277,
      "ittered": 8278,
      "Ġwhoo": 8279,
      "Ġkilled": 8280,
      "Ġbond": 8281,
      "getic": 8282,
      "Ġflashed": 8283,
      "arable": 8284,
      "ĠNora": 8285,
      "Ġfloors": 8286,
      "Ġcompan": 8287,
      "Ġinstantly": 8288,
      "Ġtroubles": 8289,
      "ĠStrip": 8290,
      "Ġhangers": 8291,
      "Alright": 8292,
      "Ġunlo": 8293,
      "Ġrescuing": 8294,
      "ĠPatch": 8295,
      "Ġunpacking": 8296,
      "Ġfilms": 8297,
      "Ġtraveling": 8298,
      "Ġapplauding": 8299,
      "Ġcontainer": 8300,
      "Ġspits": 8301,
      "ĠMegan": 8302,
      "Ġflaps": 8303,
      "Ġtextures": 8304,
      "Ġsternly": 8305,
      "Ġoccasion": 8306,
      "Ġdisobey": 8307,
      "Jeff": 8308,
      "Ke": 8309,
      "Papa": 8310,
      "bu": 8311,
      "Ġfain": 8312,
      "anced": 8313,
      "eline": 8314,
      "ĠMan": 8315,
      "ĠMaisy": 8316,
      "Ġsometime": 8317,
      "ĠFel": 8318,
      "Ġfires": 8319,
      "Ġimaginary": 8320,
      "Ġpractised": 8321,
      "Ġcheerfully": 8322,
      "Ġcomputers": 8323,
      "Ġcrocodiles": 8324,
      "Ġmischie": 8325,
      "udged": 8326,
      "Ġtaped": 8327,
      "Ġinsep": 8328,
      "Ġairplanes": 8329,
      "Ġexpecting": 8330,
      "ĠBobbie": 8331,
      "Someone": 8332,
      "ĠPinchy": 8333,
      "Ġmischievous": 8334,
      "David": 8335,
      "Poppy": 8336,
      "lt": 8337,
      "lied": 8338,
      "oc": 8339,
      "pr": 8340,
      "Ġill": 8341,
      "ita": 8342,
      "erk": 8343,
      "Ġnatur": 8344,
      "ĠSk": 8345,
      "Ġyum": 8346,
      "amma": 8347,
      "Ġsmelt": 8348,
      "Ġseals": 8349,
      "ĠAmanda": 8350,
      "ĠYouÃ¢": 8351,
      "ĠLy": 8352,
      "Ġchin": 8353,
      "bba": 8354,
      "Ġoverhead": 8355,
      "Ġexploration": 8356,
      "TMve": 8357,
      "Ġdeed": 8358,
      "Ġsquinted": 8359,
      "Ġbuses": 8360,
      "airy": 8361,
      "Ġelbow": 8362,
      "Ġtownspe": 8363,
      "Ġmattered": 8364,
      "Ġbreaths": 8365,
      "Ġtickling": 8366,
      "Ġscrub": 8367,
      "ĠBecky": 8368,
      "Ġcrawls": 8369,
      "Ġwiser": 8370,
      "Ġorders": 8371,
      "ĠFinny": 8372,
      "Ġerase": 8373,
      "Ġexplains": 8374,
      "Ġobserving": 8375,
      "Ġpaddling": 8376,
      "ĠJanie": 8377,
      "Freddy": 8378,
      "Ġparticularly": 8379,
      "Ġconquered": 8380,
      "Ġcompanion": 8381,
      "Ġinseparable": 8382,
      "Ġtownspeople": 8383,
      "Cla": 8384,
      "Honey": 8385,
      "flowers": 8386,
      "hny": 8387,
      "py": 8388,
      "Ġbound": 8389,
      "Ġwaded": 8390,
      "ators": 8391,
      "ĠBer": 8392,
      "Ġrewards": 8393,
      "Ġspy": 8394,
      "asant": 8395,
      "Ġtraded": 8396,
      "Ġskies": 8397,
      "Momma": 8398,
      "Ġchecks": 8399,
      "ĠPen": 8400,
      "Ġforgives": 8401,
      "Ġsingers": 8402,
      "Ġsets": 8403,
      "Ġzooms": 8404,
      "Ġrobin": 8405,
      "Ġsprays": 8406,
      "ĠAlbert": 8407,
      "Ġrats": 8408,
      "Ġterrified": 8409,
      "Ġghosts": 8410,
      "Ġvests": 8411,
      "ĠMaddie": 8412,
      "Brown": 8413,
      "Ġnodding": 8414,
      "Claire": 8415,
      "Milo": 8416,
      "Zoe": 8417,
      "belt": 8418,
      "five": 8419,
      "lo": 8420,
      "lers": 8421,
      "olp": 8422,
      "rough": 8423,
      "Ġicing": 8424,
      "ĠTy": 8425,
      "Ġhaven": 8426,
      "ĠSadie": 8427,
      "llas": 8428,
      "ĠHope": 8429,
      "otch": 8430,
      "Ġshallow": 8431,
      "Ġclerk": 8432,
      "ĠWilliam": 8433,
      "Ġsurely": 8434,
      "Ġsandy": 8435,
      "ĠDog": 8436,
      "Jacky": 8437,
      "asha": 8438,
      "Ġpetting": 8439,
      "Ġembra": 8440,
      "Ġsupplied": 8441,
      "Stay": 8442,
      "Ġstretches": 8443,
      "Ġpinching": 8444,
      "Ġawful": 8445,
      "Ġawhile": 8446,
      "ivia": 8447,
      "Ġscratching": 8448,
      "ĠMarie": 8449,
      "Ġumbrellas": 8450,
      "udolp": 8451,
      "Ġscolds": 8452,
      "Ġapplause": 8453,
      "ĠSeeing": 8454,
      "Ġfascinating": 8455,
      "ĠFrankie": 8456,
      "Maya": 8457,
      "Ġprickly": 8458,
      "Ġsculpture": 8459,
      "udolph": 8460,
      "Buzz": 8461,
      "Pl": 8462,
      "Put": 8463,
      "free": 8464,
      "oss": 8465,
      "Ġ5": 8466,
      "Ġsens": 8467,
      "Ġbas": 8468,
      "idnight": 8469,
      "immered": 8470,
      "Ġrumbling": 8471,
      "rick": 8472,
      "Ġmommies": 8473,
      "Ġweighing": 8474,
      "ĠBa": 8475,
      "ĠBaa": 8476,
      "ĠBonnie": 8477,
      "Ġshorter": 8478,
      "ĠAlly": 8479,
      "ddie": 8480,
      "ĠLia": 8481,
      "ĠDuck": 8482,
      "ĠFiona": 8483,
      "Ġpeep": 8484,
      "ĠAnnabelle": 8485,
      "Ġdonkey": 8486,
      "ÅĵMaybe": 8487,
      "Ġleaking": 8488,
      "Ġbuckled": 8489,
      "Ġbathing": 8490,
      "Ġreturning": 8491,
      "screen": 8492,
      "Ġseatbelt": 8493,
      "Ġwhisk": 8494,
      "Ġtesting": 8495,
      "Ġchecking": 8496,
      "Ġmodels": 8497,
      "Ġlabels": 8498,
      "Ġknocking": 8499,
      "Ġenergetic": 8500,
      "ĠPepper": 8501,
      "ĠTrust": 8502,
      "Ġpressing": 8503,
      "Ġsirens": 8504,
      "Ġcustomer": 8505,
      "Ġopportunity": 8506,
      "Ġnatural": 8507,
      "Buddy": 8508,
      "Che": 8509,
      "Nice": 8510,
      "Ġsigning": 8511,
      "Ġbless": 8512,
      "Ġfet": 8513,
      "ouched": 8514,
      "Ġwashes": 8515,
      "Ġodd": 8516,
      "Ġnapped": 8517,
      "anish": 8518,
      "Ġsteth": 8519,
      "Ġplugged": 8520,
      "unic": 8521,
      "Ġshin": 8522,
      "elle": 8523,
      "Ġchill": 8524,
      "Ġblown": 8525,
      "Ġtapping": 8526,
      "Ġsunscreen": 8527,
      "Ġwaterm": 8528,
      "Ġstrum": 8529,
      "Ġteap": 8530,
      "Ġglimmering": 8531,
      "Ġconcent": 8532,
      "Ġclosing": 8533,
      "Ġgrassho": 8534,
      "Ġgulp": 8535,
      "Ġbounces": 8536,
      "Ġpreschool": 8537,
      "Ġmysteries": 8538,
      "Ġwildflowers": 8539,
      "Ġdigs": 8540,
      "Ġstamped": 8541,
      "Ġtraps": 8542,
      "Ġdestroying": 8543,
      "Ġexperiment": 8544,
      "Ġweapons": 8545,
      "ĠAnother": 8546,
      "ĠJonathan": 8547,
      "ĠBirdie": 8548,
      "ĠMaddy": 8549,
      "True": 8550,
      "Ġdefeated": 8551,
      "Ġunwra": 8552,
      "Ġstethos": 8553,
      "Ġconcentr": 8554,
      "',": 8555,
      "Aunt": 8556,
      "Arrr": 8557,
      "Co": 8558,
      "fly": 8559,
      "lor": 8560,
      "vince": 8561,
      "Ġ4": 8562,
      "ouraged": 8563,
      "oma": 8564,
      "Ġbea": 8565,
      "Ġplug": 8566,
      "Ġrebu": 8567,
      "ĠwhatÃ¢": 8568,
      "Ġcarries": 8569,
      "ooks": 8570,
      "andra": 8571,
      "ÅĵBe": 8572,
      "ĠPhil": 8573,
      "Ġconvince": 8574,
      "Ġsoundly": 8575,
      "ĠRuth": 8576,
      "Ġdrip": 8577,
      "Ġsnowy": 8578,
      "uggy": 8579,
      "Ġcourt": 8580,
      "Ġyoungest": 8581,
      "Ġactive": 8582,
      "Ġburns": 8583,
      "ippers": 8584,
      "Ġhunting": 8585,
      "Ġlowered": 8586,
      "Ġbackpacks": 8587,
      "Ġfleas": 8588,
      "Ġsqueaky": 8589,
      "Ġquacking": 8590,
      "Ġrows": 8591,
      "amboo": 8592,
      "Ġmeows": 8593,
      "Uncle": 8594,
      "Ġwounds": 8595,
      "Ġcommon": 8596,
      "Ġembarrassing": 8597,
      "Ġcowboys": 8598,
      "whel": 8599,
      "Ġgallop": 8600,
      "pril": 8601,
      "Ġwatermel": 8602,
      "Ġteapot": 8603,
      "Jessie": 8604,
      "Lena": 8605,
      "Pretty": 8606,
      "oard": 8607,
      "rink": 8608,
      "sie": 8609,
      "Ġlar": 8610,
      "Ġcuc": 8611,
      "ĠTime": 8612,
      "ĠTerry": 8613,
      "ĠHopper": 8614,
      "adually": 8615,
      "Ġformed": 8616,
      "ĠBra": 8617,
      "Ġwhales": 8618,
      "icle": 8619,
      "Ġcanv": 8620,
      "Ġbacks": 8621,
      "Ġfunn": 8622,
      "ĠWigg": 8623,
      "Ġfaith": 8624,
      "Ġswat": 8625,
      "Ġswallow": 8626,
      "Ġaboard": 8627,
      "ĠSamantha": 8628,
      "Ġintently": 8629,
      "Ġoverwhel": 8630,
      "ĠPink": 8631,
      "ĠGemma": 8632,
      "Josh": 8633,
      "Ġmesses": 8634,
      "Ġmessages": 8635,
      "Ġcompared": 8636,
      "otte": 8637,
      "Ġprod": 8638,
      "Ġprog": 8639,
      "Ġwelcoming": 8640,
      "Instead": 8641,
      "arlotte": 8642,
      "Ġadds": 8643,
      "Ġgoats": 8644,
      "Ġtanks": 8645,
      "Ġpantry": 8646,
      "faction": 8647,
      "Ġcrystals": 8648,
      "ĠPeep": 8649,
      "ĠPeggy": 8650,
      "Ġburger": 8651,
      "Ġoffering": 8652,
      "Ġfloats": 8653,
      "Ġdemanding": 8654,
      "Ġsatisfaction": 8655,
      "Ġopinions": 8656,
      "ĠTwinkle": 8657,
      "Ġcommunic": 8658,
      "Ġtypes": 8659,
      "ĠTessa": 8660,
      "ĠQuackers": 8661,
      "reya": 8662,
      "ĠRocky": 8663,
      "Ġmatey": 8664,
      "Ġgrasshopper": 8665,
      "Ġstethoscope": 8666,
      "Hold": 8667,
      "Vroom": 8668,
      "iens": 8669,
      "jest": 8670,
      "ris": 8671,
      "Ġtips": 8672,
      "ĠHold": 8673,
      "Ġinter": 8674,
      "Ġshave": 8675,
      "Ġwhimp": 8676,
      "ĠMuffin": 8677,
      "ĠJu": 8678,
      "Ġaliens": 8679,
      "Ġbride": 8680,
      "ĠWin": 8681,
      "roll": 8682,
      "Ġability": 8683,
      "Ġque": 8684,
      "than": 8685,
      "ĠNice": 8686,
      "ĠRudolph": 8687,
      "Ġcompete": 8688,
      "Ġjoyfully": 8689,
      "Ġcreams": 8690,
      "Ġbats": 8691,
      "Ġmedals": 8692,
      "Ġanswering": 8693,
      "Ġthicker": 8694,
      "Ġsqueezes": 8695,
      "Ġapology": 8696,
      "Ġscares": 8697,
      "Ġmember": 8698,
      "Ġcops": 8699,
      "Ġguarding": 8700,
      "Ġimproving": 8701,
      "Ġproviding": 8702,
      "Quack": 8703,
      "Ġrobbers": 8704,
      "ĠPoor": 8705,
      "ĠHootie": 8706,
      "ĠEliz": 8707,
      "Ġdetails": 8708,
      "Ġtemptation": 8709,
      "ĠStanley": 8710,
      "Suzie": 8711,
      "Ġslithered": 8712,
      "Ġresponsibility": 8713,
      "Ġreappeared": 8714,
      "Ġvibrant": 8715,
      "Ġfaint": 8716,
      "Ġwatermelon": 8717,
      "Big": 8718,
      "Feeling": 8719,
      "Jon": 8720,
      "Lizzie": 8721,
      "Mart": 8722,
      "lock": 8723,
      "prin": 8724,
      "well": 8725,
      "Ġtilted": 8726,
      "Ġsipped": 8727,
      "Ġtopp": 8728,
      "omb": 8729,
      "ĠTre": 8730,
      "Ġgroom": 8731,
      "Ġhab": 8732,
      "stand": 8733,
      "stantly": 8734,
      "Ġdolly": 8735,
      "Ġspies": 8736,
      "ĠAgain": 8737,
      "ĠJasmine": 8738,
      "arefully": 8739,
      "Ġroast": 8740,
      "Ġtreas": 8741,
      "Ġlapt": 8742,
      "ĠLots": 8743,
      "Ġgrumbled": 8744,
      "Ġbubbly": 8745,
      "ĠColin": 8746,
      "Thomas": 8747,
      "ÅĵOk": 8748,
      "aste": 8749,
      "Ġcleans": 8750,
      "ĠRight": 8751,
      "Ġamused": 8752,
      "ship": 8753,
      "Ġhotter": 8754,
      "Ġsprang": 8755,
      "Ġprotection": 8756,
      "Ġtunes": 8757,
      "ĠDonÃ¢": 8758,
      "Ġtorto": 8759,
      "Ġcompliment": 8760,
      "ĠPeppa": 8761,
      "Ġbeeping": 8762,
      "Ġgroan": 8763,
      "ĠSnowball": 8764,
      "Ġstudent": 8765,
      "Ġharvest": 8766,
      "Ġsnaps": 8767,
      "Ġspilling": 8768,
      "etchup": 8769,
      "ĠMelissa": 8770,
      "Ġbehaviour": 8771,
      "ĠPlaying": 8772,
      "Ġexperiences": 8773,
      "Ġpossess": 8774,
      "elieve": 8775,
      "Ġdrowned": 8776,
      "Ġdiscouraged": 8777,
      "Ġunable": 8778,
      "Ġcanvas": 8779,
      "Ġqueens": 8780,
      "Abby": 8781,
      "ca": 8782,
      "wing": 8783,
      "ĠYum": 8784,
      "Ġbamboo": 8785,
      "Ġmunched": 8786,
      "ĠSal": 8787,
      "ori": 8788,
      "Ġupside": 8789,
      "ending": 8790,
      "Ġketchup": 8791,
      "ĠMoo": 8792,
      "icking": 8793,
      "ĠDuke": 8794,
      "venir": 8795,
      "Ġench": 8796,
      "Ġlongest": 8797,
      "ĠJoJo": 8798,
      "Ġflowing": 8799,
      "ully": 8800,
      "Ġcheated": 8801,
      "Ġglittered": 8802,
      "Ġwinds": 8803,
      "Ġbluebird": 8804,
      "Ġmeaning": 8805,
      "Ġcrouched": 8806,
      "angle": 8807,
      "idents": 8808,
      "Ġnecks": 8809,
      "Ġservant": 8810,
      "ĠAlison": 8811,
      "Ġhonesty": 8812,
      "Ġcroaked": 8813,
      "Ġsuccessfully": 8814,
      "Ġbeetles": 8815,
      "Ġenvelopes": 8816,
      "Ġmiller": 8817,
      "Ġkayaking": 8818,
      "Ġquarre": 8819,
      "Ġfreezing": 8820,
      "Choo": 8821,
      "Chirp": 8822,
      "ĠVroom": 8823,
      "Ġcubs": 8824,
      "ccidents": 8825,
      "Ġcalmer": 8826,
      "ĠCatty": 8827,
      "ĠLiam": 8828,
      "Which": 8829,
      "Ġdodged": 8830,
      "Ġearned": 8831,
      "Ġsouvenir": 8832,
      "ĠMagic": 8833,
      "ĠNancy": 8834,
      "Ġelectricity": 8835,
      "Brownie": 8836,
      "Ġrebuild": 8837,
      "Ġlarger": 8838,
      "Ġlaptop": 8839,
      "Curious": 8840,
      "Pip": 8841,
      "Â¦": 8842,
      "Ġtheat": 8843,
      "Ġlim": 8844,
      "idi": 8845,
      "Ġhamb": 8846,
      "ĠSleep": 8847,
      "ĠSuper": 8848,
      "ĠweÃ¢": 8849,
      "Ġwhined": 8850,
      "ĠAlf": 8851,
      "âĤ¬Â¦": 8852,
      "ĠDoug": 8853,
      "ĠFuzz": 8854,
      "Ġposes": 8855,
      "Ġbund": 8856,
      "emon": 8857,
      "ĠCro": 8858,
      "ĠPa": 8859,
      "ĠPu": 8860,
      "Ġunco": 8861,
      "ulars": 8862,
      "ĠAllie": 8863,
      "Ġsalon": 8864,
      "ĠStill": 8865,
      "Ġ''": 8866,
      "Ġsnapping": 8867,
      "ĠBruce": 8868,
      "Ġmiracle": 8869,
      "ĠBubba": 8870,
      "Ġintelligence": 8871,
      "Ġcombed": 8872,
      "Ġvolcanoes": 8873,
      "Ġbinoc": 8874,
      "Ġhaircuts": 8875,
      "Ġrags": 8876,
      "Ġrepeats": 8877,
      "ĠIsn": 8878,
      "Ġsituations": 8879,
      "ĠOlivia": 8880,
      "Ġjudges": 8881,
      "Ġlocal": 8882,
      "Ġoverwhelmed": 8883,
      "Ġtreasured": 8884,
      "Ġtheatre": 8885,
      "Ġhambur": 8886,
      "Ġbinoculars": 8887,
      "Gina": 8888,
      "Lizzy": 8889,
      "barrow": 8890,
      "car": 8891,
      "over": 8892,
      "yle": 8893,
      "Ãĥ": 8894,
      "Ġtot": 8895,
      "Ġborn": 8896,
      "Ġbiscuit": 8897,
      "Ġlush": 8898,
      "Ġdashed": 8899,
      "Ġpuck": 8900,
      "Ġpouch": 8901,
      "iliar": 8902,
      "ĠSay": 8903,
      "onest": 8904,
      "oto": 8905,
      "Ġinches": 8906,
      "igger": 8907,
      "amiliar": 8908,
      "Ġshattered": 8909,
      "Ġdoves": 8910,
      "ĠMidnight": 8911,
      "Ġknives": 8912,
      "ĠWil": 8913,
      "ĠWoo": 8914,
      "Ġworst": 8915,
      "ellie": 8916,
      "ĠEver": 8917,
      "Ġbloss": 8918,
      "ĠDra": 8919,
      "Ġhoses": 8920,
      "Ġtrigger": 8921,
      "Ġglided": 8922,
      "Ġracer": 8923,
      "Ġstores": 8924,
      "Ġcris": 8925,
      "Ġcrops": 8926,
      "ĠRicky": 8927,
      "Ġruff": 8928,
      "Ġdrill": 8929,
      "shaped": 8930,
      "Ġtops": 8931,
      "Ġchopping": 8932,
      "Ġdryer": 8933,
      "ĠOf": 8934,
      "ĠOuch": 8935,
      "Everyday": 8936,
      "Ġserving": 8937,
      "Ġpleasant": 8938,
      "Ġhummed": 8939,
      "Ġmoonlight": 8940,
      "Ġshoots": 8941,
      "Ġwheelbarrow": 8942,
      "Ġjogger": 8943,
      "Ġmelody": 8944,
      "Ġexplaining": 8945,
      "ibly": 8946,
      "ĠMatilda": 8947,
      "Ġchatted": 8948,
      "Ġunfamiliar": 8949,
      "Ġswirls": 8950,
      "ĠMonkey": 8951,
      "Ġchoosing": 8952,
      "Ġsnorted": 8953,
      "Ġpositive": 8954,
      "ĠImmediately": 8955,
      "Ġtortoise": 8956,
      "Bu": 8957,
      "Deal": 8958,
      "HE": 8959,
      "Never": 8960,
      "Ollie": 8961,
      "Red": 8962,
      "lish": 8963,
      "off": 8964,
      "edic": 8965,
      "Ġhike": 8966,
      "Ġfade": 8967,
      "Ġlump": 8968,
      "Ġcine": 8969,
      "erg": 8970,
      "Ġdou": 8971,
      "Ġpipes": 8972,
      "enn": 8973,
      "Ġnanny": 8974,
      "ĠSince": 8975,
      "Ġthump": 8976,
      "Ġbeast": 8977,
      "Ġshines": 8978,
      "endant": 8979,
      "Ġnoticing": 8980,
      "Ġank": 8981,
      "ĠAr": 8982,
      "ĠApril": 8983,
      "Ġlevers": 8984,
      "Ġswap": 8985,
      "Ġblushed": 8986,
      "uddles": 8987,
      "Ġrunner": 8988,
      "Ġenem": 8989,
      "Ġglisten": 8990,
      "Ġunderwater": 8991,
      "Ġfinishes": 8992,
      "Ġrealizes": 8993,
      "Ġmajest": 8994,
      "Ġenjoyable": 8995,
      "ĠRich": 8996,
      "shadow": 8997,
      "Ġhatched": 8998,
      "Ġstepping": 8999,
      "Ġpapa": 9000,
      "Ġdrying": 9001,
      "colored": 9002,
      "Ġpasses": 9003,
      "Ġdisappointment": 9004,
      "ĠBehind": 9005,
      "Ġtwists": 9006,
      "Ġhunters": 9007,
      "Ġscattering": 9008,
      "Ġsupporting": 9009,
      "Ġluckiest": 9010,
      "Ġunlocking": 9011,
      "Ġstrips": 9012,
      "Ġburgers": 9013,
      "ÅĵWeÃ¢": 9014,
      "ĠCaroline": 9015,
      "Ġannounced": 9016,
      "ĠMae": 9017,
      "Ġproperty": 9018,
      "Ġbruises": 9019,
      "Ġcinema": 9020,
      "Ġenemies": 9021,
      "!'.": 9022,
      "Friend": 9023,
      "Jacob": 9024,
      "Kayla": 9025,
      "Mabel": 9026,
      "Nick": 9027,
      "Snow": 9028,
      "cus": 9029,
      "ker": 9030,
      "Ġicky": 9031,
      "Ġwig": 9032,
      "nded": 9033,
      "Ġbomb": 9034,
      "Ġhood": 9035,
      "Ġlull": 9036,
      "ĠHa": 9037,
      "aming": 9038,
      "Ġforts": 9039,
      "ĠBounce": 9040,
      "ĠBuggy": 9041,
      "alled": 9042,
      "Ġwhir": 9043,
      "ecca": 9044,
      "Ġbold": 9045,
      "Ġexamp": 9046,
      "Ġclut": 9047,
      "ĠLenny": 9048,
      "Ġgoodness": 9049,
      "ĠDe": 9050,
      "ĠJody": 9051,
      "Ġbadger": 9052,
      "Ġdev": 9053,
      "Ġstew": 9054,
      "ĠDoes": 9055,
      "ĠFlora": 9056,
      "Still": 9057,
      "Ġmeadows": 9058,
      "Ġcircled": 9059,
      "Ġcaterpillars": 9060,
      "Ġweaker": 9061,
      "Ġcherish": 9062,
      "Along": 9063,
      "Ġhooks": 9064,
      "Ġmugs": 9065,
      "ĠShare": 9066,
      "Ġwiggling": 9067,
      "Ġthumbs": 9068,
      "Ġrails": 9069,
      "ĠWhoever": 9070,
      "Robbie": 9071,
      "Ġdaily": 9072,
      "Ġrevealing": 9073,
      "ĠMona": 9074,
      "Ġchooses": 9075,
      "Ġwriggled": 9076,
      "Ġpeeped": 9077,
      "Both": 9078,
      "Hmm": 9079,
      "Kids": 9080,
      "Zoom": 9081,
      "gar": 9082,
      "ĠOh": 9083,
      "Ġactor": 9084,
      "Ġgoo": 9085,
      "Ġgates": 9086,
      "Ġnic": 9087,
      "orking": 9088,
      "ĠHurry": 9089,
      "Ġriddle": 9090,
      "Ġplumber": 9091,
      "Ġplayd": 9092,
      "ĠBoo": 9093,
      "Ġboards": 9094,
      "ics": 9095,
      "Ġlevel": 9096,
      "Ġscow": 9097,
      "Ġscores": 9098,
      "Ġroamed": 9099,
      "Ġprank": 9100,
      "Ġpoles": 9101,
      "Ġpeas": 9102,
      "Ġpeak": 9103,
      "Ġtrim": 9104,
      "Ġbud": 9105,
      "ĠNever": 9106,
      "Ġdifferently": 9107,
      "Ġbowing": 9108,
      "Ġhunger": 9109,
      "Ġarmor": 9110,
      "ĠKaty": 9111,
      "Ġroller": 9112,
      "ouncy": 9113,
      "Ġcafe": 9114,
      "ĠStartled": 9115,
      "Ġtests": 9116,
      "keepers": 9117,
      "Spike": 9118,
      "Ġsilently": 9119,
      "Ġangrily": 9120,
      "Ġhamster": 9121,
      "Ġdesigner": 9122,
      "uction": 9123,
      "ĠShow": 9124,
      "Ġpoisonous": 9125,
      "ĠReady": 9126,
      "Ġladybird": 9127,
      "Ġhonks": 9128,
      "Ġannoying": 9129,
      "ĠSunshine": 9130,
      "Ġgasps": 9131,
      "Ġscenery": 9132,
      "Ġinjured": 9133,
      "Ġdistracted": 9134,
      "ĠBernie": 9135,
      "ĠTyler": 9136,
      "Ġbeaver": 9137,
      "Ġnicest": 9138,
      "Lucky": 9139,
      "Santa": 9140,
      "Tara": 9141,
      "jack": 9142,
      "just": 9143,
      "Ġouch": 9144,
      "Ġhudd": 9145,
      "Ġheels": 9146,
      "ĠToto": 9147,
      "ann": 9148,
      "uno": 9149,
      "ĠBad": 9150,
      "Ġlocks": 9151,
      "ĠAccidents": 9152,
      "hings": 9153,
[...]
